<pad>	0
<s>	0
</s>	0
<unk>	0
。	-2.85493
、	-3.05306
の	-3.26883
▁	-3.60452
を	-3.96549
が	-4.13284
に	-4.14064
は	-4.19993
と	-4.39543
」	-4.48152
▁「	-4.52995
も	-4.88166
から	-5.06485
で	-5.17383
か	-5.35705
な	-5.40115
る	-5.56727
して	-5.6702
した	-5.67734
って	-5.8775
い	-5.88327
た	-5.92475
する	-5.97664
へ	-5.97767
し	-5.98504
り	-6.00899
である	-6.03074
て	-6.03486
その	-6.05398
ら	-6.07716
この	-6.086
く	-6.24743
き	-6.29601
だ	-6.30878
さ	-6.33458
った	-6.33716
いた	-6.37192
一	-6.39151
また	-6.40436
御	-6.4372
ない	-6.43907
でも	-6.48335
す	-6.50296
う	-6.52768
ある	-6.53237
ね	-6.53398
いる	-6.54215
や	-6.54789
という	-6.55093
よ	-6.59837
には	-6.62483
お	-6.62996
人	-6.63696
と云う	-6.65066
であった	-6.66283
時	-6.66577
自分の	-6.76996
そう	-6.77441
事	-6.82835
まで	-6.8412
わ	-6.85648
出	-6.87785
んだ	-6.88542
見	-6.92494
▁しかし	-6.93456
だから	-6.95108
している	-6.97344
ん	-6.97715
「	-6.98414
なかった	-7.00314
なら	-7.01018
大	-7.01819
あ	-7.05648
いて	-7.07198
ま	-7.08553
がある	-7.10267
ように	-7.11052
手	-7.11554
上	-7.12556
ような	-7.13222
▁彼は	-7.16678
として	-7.17143
気	-7.17308
何	-7.19435
▁その	-7.19664
のです	-7.20338
っている	-7.20859
になる	-7.21207
ので	-7.21369
来た	-7.21912
▁そうして	-7.22063
二	-7.22099
すぐ	-7.22242
よく	-7.22806
まだ	-7.23466
み	-7.23849
少し	-7.23857
ながら	-7.24283
事を	-7.24797
です	-7.25072
下	-7.25584
今	-7.26415
▁私は	-7.2648
じゃ	-7.27567
ただ	-7.28228
▁自分は	-7.28853
日	-7.29015
不	-7.29092
なる	-7.291
物	-7.30248
出した	-7.30592
もう	-7.31306
――	-7.31805
ばかり	-7.32783
▁――	-7.33035
無	-7.33752
にも	-7.34031
行く	-7.34622
彼は	-7.34915
つ	-7.36424
通り	-7.36567
だろう	-7.37287
▁けれども	-7.38424
口	-7.38433
中	-7.38768
さえ	-7.38854
彼の	-7.39044
ほど	-7.39465
え	-7.39827
三	-7.39973
とも	-7.4017
のである	-7.41997
より	-7.42487
んで	-7.42867
つて	-7.44279
め	-7.44353
人の	-7.44842
のは	-7.45504
女	-7.45726
ず	-7.46559
来る	-7.48419
生	-7.49199
ー	-7.4924
それを	-7.49321
ました	-7.49333
私は	-7.49494
こう	-7.50242
ちょっと	-7.50438
間	-7.50521
分	-7.51316
になって	-7.51518
になった	-7.51652
ば	-7.52867
▁この	-7.53054
向	-7.53335
前	-7.53442
所	-7.54049
の上に	-7.54097
のように	-7.54637
いい	-7.54641
々	-7.552
家	-7.55592
れ	-7.55614
後	-7.56769
け	-7.57496
ち	-7.5796
云う	-7.58142
小	-7.58756
していた	-7.59495
私の	-7.59564
もの	-7.5965
本	-7.59668
でしょう	-7.59772
む	-7.60739
山	-7.61288
ぬ	-7.61416
▁すると	-7.61731
こ	-7.61763
好い	-7.61982
君	-7.6207
だって	-7.63083
なり	-7.6344
よう	-7.63677
年	-7.64867
金	-7.64972
さん	-7.65094
者	-7.65116
......」	-7.66509
しい	-7.66608
水	-7.67326
目	-7.67339
通	-7.69015
とは	-7.69044
こんな	-7.71024
心	-7.72035
長	-7.72433
夜	-7.72843
外	-7.73038
だけ	-7.73129
じ	-7.73212
何か	-7.7347
んです	-7.74049
行	-7.74172
先	-7.74268
見た	-7.74573
せ	-7.74631
地	-7.74798
と云った	-7.74865
なく	-7.74952
話	-7.74995
ている	-7.75203
用	-7.75355
▁ただ	-7.75365
真	-7.75522
人間	-7.76115
訳	-7.76404
一つ	-7.76605
ます	-7.76796
月	-7.76941
あった	-7.76979
男	-7.77083
出す	-7.77343
事は	-7.77397
まあ	-7.78012
ものは	-7.78447
方	-7.78917
合	-7.79412
らない	-7.79647
足	-7.79762
られた	-7.79775
私	-7.79865
ン	-7.80141
会	-7.80934
つた	-7.81006
っ	-7.81105
顔を	-7.8156
自分	-7.81818
よりも	-7.81839
れば	-7.82285
そんな	-7.82627
来	-7.82727
とか	-7.83655
出して	-7.84201
はない	-7.84267
名	-7.84424
手を	-7.8458
来て	-7.84846
と云って	-7.84943
らしい	-7.85505
顔	-7.85903
気が	-7.85971
あの	-7.86701
見ると	-7.87207
ええ	-7.87441
方が	-7.8747
もない	-7.87564
これ	-7.87757
力	-7.87778
された	-7.87869
点	-7.88049
急に	-7.88504
空	-7.88673
ふ	-7.88824
ひ	-7.88883
断	-7.89713
っていた	-7.89994
前に	-7.90295
子	-7.90388
なければ	-7.9051
大きな	-7.90536
をして	-7.90806
ど	-7.91032
天	-7.92092
返	-7.92228
だと	-7.93456
眼	-7.93986
▁代助は	-7.94874
の中に	-7.94969
一人	-7.94972
それ	-7.95442
当	-7.95445
其	-7.95913
云った	-7.96141
を見	-7.96357
眼を	-7.96372
しない	-7.96376
れる	-7.9638
ろ	-7.9718
では	-7.97254
考え	-7.97493
重	-7.98061
▁それから	-7.9839
書	-7.98444
しく	-7.98792
れた	-7.9898
白	-7.99528
じゃないか	-7.9953
先生	-7.99723
変	-8.00332
道	-8.00413
内	-8.00815
に対して	-8.01408
木	-8.01906
のない	-8.01944
ぶ	-8.02036
夫	-8.02597
石	-8.03365
▁三四郎は	-8.03496
体	-8.03815
様	-8.0419
まま	-8.04385
始めて	-8.0456
着	-8.04697
ぐ	-8.04955
かった	-8.04988
にして	-8.0503
まるで	-8.05133
花	-8.05406
のために	-8.05733
全く	-8.05804
行った	-8.05991
と思う	-8.06017
高	-8.06141
人が	-8.0622
▁だから	-8.06415
余	-8.06969
ものが	-8.06986
あなた	-8.07239
くる	-8.07699
平	-8.07986
けれども	-8.08136
思い	-8.08767
同じ	-8.08781
いや	-8.08982
十	-8.09527
僕	-8.09564
であります	-8.09651
られる	-8.09738
片	-8.09955
入	-8.09961
言	-8.10272
聞いた	-8.10382
どう	-8.10497
どんな	-8.10504
明	-8.10588
みんな	-8.10668
ろう	-8.1087
有	-8.10887
ご	-8.11051
取り	-8.11603
かい	-8.11743
それが	-8.11787
早く	-8.11845
四	-8.12194
ために	-8.12197
切	-8.12556
ると	-8.12603
りと	-8.12743
人は	-8.12763
頭	-8.12878
くらい	-8.12914
ス	-8.13022
すると	-8.13116
」「	-8.13438
、「	-8.1354
込んで	-8.13587
見る	-8.13871
をした	-8.14038
かも知れない	-8.14192
的	-8.14294
起	-8.14508
時に	-8.14633
中に	-8.1486
ため	-8.15344
それで	-8.15527
ではない	-8.15635
親	-8.15649
突然	-8.15984
母	-8.16016
じゃない	-8.16249
めて	-8.16258
行って	-8.16375
ぎ	-8.16467
字	-8.16664
実	-8.16695
引き	-8.16926
出る	-8.17157
いない	-8.17204
あまり	-8.17797
ぜ	-8.18391
語	-8.1862
うちに	-8.18628
意味	-8.18729
があった	-8.18751
のある	-8.18923
風	-8.18959
自分は	-8.18963
なかつた	-8.19243
えて	-8.1932
屋	-8.19499
事が	-8.1952
味	-8.19589
五	-8.19707
ものを	-8.19883
寝	-8.19967
引	-8.20095
横	-8.20216
僕は	-8.20524
のか	-8.20671
好	-8.2081
の事	-8.20891
について	-8.20935
表	-8.21002
元	-8.21544
かな	-8.21725
古	-8.21871
八	-8.22061
をする	-8.22806
色	-8.23153
たい	-8.23531
ところ	-8.23552
町	-8.23701
そ	-8.23755
がない	-8.23775
直	-8.23888
▁それで	-8.23971
たる	-8.23993
世	-8.24206
落	-8.24391
数	-8.24447
此	-8.24556
んだから	-8.24597
画	-8.2491
の方へ	-8.25082
女の	-8.25166
こと	-8.25256
奥さん	-8.25612
鼻	-8.25723
いくら	-8.25964
半	-8.26344
正	-8.26404
時々	-8.27195
度	-8.27532
つい	-8.27615
我	-8.27619
言葉	-8.27634
めた	-8.27646
立って	-8.27791
など	-8.27809
二人	-8.28371
得	-8.28595
面	-8.2868
事実	-8.28932
ません	-8.29111
なぜ	-8.29125
指	-8.29145
ようやく	-8.29205
楽	-8.29275
ル	-8.29417
立	-8.29642
黒	-8.29669
作	-8.30115
ですか	-8.30191
代	-8.30256
あり	-8.30556
形	-8.30714
渡	-8.30938
解	-8.31417
必要	-8.31428
いつ	-8.31992
性	-8.32025
云い	-8.32515
両	-8.32623
そうに	-8.32656
食	-8.32675
悪	-8.32824
のような	-8.32974
気に	-8.33072
君は	-8.33135
夢	-8.33183
うん	-8.3327
かね	-8.33383
彼	-8.33659
取	-8.33946
相	-8.34223
父	-8.34462
場	-8.34708
命	-8.34709
しばらく	-8.34714
客	-8.34775
僕の	-8.34883
問題	-8.34956
笑	-8.35006
どうも	-8.35303
君の	-8.35622
身	-8.36154
もし	-8.36191
そりゃ	-8.36397
東京	-8.36404
例	-8.36671
やる	-8.36897
れて	-8.36901
ずに	-8.36913
そこに	-8.36934
事に	-8.37047
文	-8.37048
理	-8.37059
折	-8.37123
朝	-8.37128
紙	-8.37215
とうとう	-8.37328
▁その時	-8.37441
される	-8.37639
今日	-8.37642
もなく	-8.37788
頃	-8.37872
白い	-8.37962
国	-8.38323
そうだ	-8.38369
兄	-8.3852
ものだ	-8.38644
学	-8.38658
同	-8.39206
事がある	-8.3928
病気	-8.39307
人に	-8.39548
かけた	-8.39674
悪い	-8.39739
出て	-8.39788
流	-8.39815
ッ	-8.39933
馬鹿	-8.4003
愛	-8.40257
じゃありませんか	-8.40427
▁僕は	-8.40476
黒い	-8.40478
大変	-8.40496
見て	-8.40533
知らない	-8.40635
世間	-8.40681
ちゃ	-8.40697
海	-8.40915
と思って	-8.40947
聞き	-8.41004
いう	-8.41311
える	-8.41675
車	-8.41874
又	-8.41894
感	-8.42013
と思った	-8.42167
いました	-8.42202
誰	-8.42311
百	-8.42502
頭を	-8.42799
に対する	-8.42911
かと	-8.43191
彼女の	-8.43285
妙な	-8.43335
回	-8.43376
込んだ	-8.43456
くなった	-8.43659
まず	-8.43771
火	-8.43863
妻	-8.4387
それは	-8.44021
意	-8.44071
持って	-8.44381
自分が	-8.44392
死	-8.44396
び	-8.44603
をもって	-8.44629
床	-8.44727
光	-8.44757
ていた	-8.45069
疑	-8.4522
何だか	-8.45232
利	-8.45309
想像	-8.454
さんは	-8.45472
長い	-8.45505
草	-8.45895
だの	-8.45957
でした	-8.45979
これは	-8.46099
つく	-8.46186
話を	-8.46194
それから	-8.46272
雨	-8.46351
ねえ	-8.46398
を見た	-8.46413
そうな	-8.4683
のごとく	-8.46841
まい	-8.47001
んですか	-8.47076
土	-8.47113
動	-8.4722
されて	-8.47278
苦	-8.47339
持	-8.47395
話し	-8.4756
放	-8.47605
六	-8.47636
居	-8.4787
別	-8.47932
出た	-8.47957
だか	-8.48057
夫婦	-8.48244
があって	-8.48509
事も	-8.48521
その時	-8.48801
の間に	-8.48827
時は	-8.48864
家の	-8.48865
立つ	-8.48983
向う	-8.49196
られ	-8.49267
湯	-8.49296
なお	-8.49317
っと	-8.49659
しまった	-8.49785
ああ	-8.49925
らしく	-8.49995
様子	-8.50003
べき	-8.50074
やっぱり	-8.50094
見えた	-8.50112
帰る	-8.50117
▁ところが	-8.5015
念	-8.50202
▁津田は	-8.50262
付	-8.5031
言葉を	-8.50479
置いて	-8.50556
思う	-8.50744
心配	-8.50751
います	-8.50774
彼女は	-8.50856
ぐらい	-8.50908
人を	-8.50942
ぼ	-8.50959
聞いて	-8.50968
立ち	-8.51411
一種の	-8.51442
ものである	-8.51568
仕	-8.5181
わが	-8.51812
掛	-8.52028
覚	-8.52066
行き	-8.52122
なかなか	-8.52257
実際	-8.52282
晩	-8.52415
間に	-8.5254
新	-8.52664
成	-8.52801
自分を	-8.52822
関係	-8.52872
時間	-8.53078
馬	-8.53081
主人	-8.5315
はず	-8.53184
だけで	-8.53323
情	-8.53615
学校	-8.53714
神	-8.53771
子供	-8.53798
猫	-8.54182
なるほど	-8.5424
今まで	-8.54321
どうしても	-8.54348
やって	-8.54524
なければならない	-8.54546
例の	-8.54547
のだから	-8.54588
ごとく	-8.54591
やはり	-8.54771
縁	-8.5478
室	-8.54893
叔父	-8.54966
位	-8.5497
ならば	-8.55006
残	-8.55072
声	-8.55175
られて	-8.55189
高い	-8.55225
今の	-8.55277
知	-8.55339
▁彼女は	-8.55387
わざと	-8.55594
所へ	-8.55694
云って	-8.55783
困る	-8.55816
腹	-8.55819
的に	-8.55878
社会	-8.55881
黙って	-8.56082
様に	-8.56211
▁余は	-8.56353
安	-8.56393
薄	-8.56557
感じ	-8.56624
多	-8.56736
日本	-8.56958
昔	-8.56966
かえって	-8.57008
丸	-8.57242
曲	-8.57314
上に	-8.57569
だいぶ	-8.57588
K	-8.57728
出来	-8.5778
胸	-8.57912
思	-8.57934
こっち	-8.58018
の前に	-8.58262
わざわざ	-8.58444
浮	-8.58492
二人の	-8.58604
なんか	-8.58698
茶	-8.58699
▁それが	-8.58789
のうちに	-8.58887
使	-8.5894
つけ	-8.58973
何にも	-8.59097
七	-8.59256
だけは	-8.59273
イ	-8.59303
幾	-8.59317
ものか	-8.59436
等	-8.59446
津田	-8.59508
のみ	-8.59609
裏	-8.59719
げ	-8.59842
のであります	-8.59863
転	-8.599
えた	-8.59915
厭	-8.60319
にある	-8.60556
生活	-8.60617
を見て	-8.60696
▁これは	-8.6091
宅	-8.61094
聞く	-8.61146
お延	-8.61254
骨	-8.61688
きっと	-8.6173
あれ	-8.61874
どこ	-8.61951
宿	-8.62102
だった	-8.62117
法	-8.62131
見える	-8.62305
もっとも	-8.62337
化	-8.62371
手に	-8.62434
部屋	-8.62468
ける	-8.62475
考えて	-8.62601
どうして	-8.62898
私が	-8.62914
病	-8.63005
程	-8.63172
余の	-8.63229
尽	-8.63322
端	-8.63454
門	-8.6355
面白い	-8.63699
もので	-8.637
庭	-8.63758
かく	-8.63767
肉	-8.63802
ここ	-8.63804
眼に	-8.63913
目に	-8.63971
づ	-8.63998
これを	-8.64026
口を	-8.64053
せる	-8.64109
帰って	-8.6425
近	-8.64262
どうか	-8.64281
何でも	-8.64375
勢	-8.6444
つか	-8.64583
兄さん	-8.6472
傍	-8.64786
だが	-8.6488
違	-8.64968
記憶	-8.65043
しかし	-8.65096
くれ	-8.65363
▁宗助は	-8.6551
異	-8.65665
結婚	-8.65665
んだろう	-8.65829
?」	-8.65837
結果	-8.65858
けた	-8.6625
品	-8.66265
飛び	-8.66497
だよ	-8.66629
める	-8.66648
落ち	-8.66692
すでに	-8.66695
いなかった	-8.66892
と答えた	-8.66911
かない	-8.6709
こそ	-8.67099
実は	-8.67103
だね	-8.67133
左	-8.67333
いている	-8.67443
むしろ	-8.67582
経験	-8.67874
小説	-8.67985
しながら	-8.68015
世の中	-8.68045
と共に	-8.6811
移	-8.68141
自分に	-8.68146
三四郎	-8.68186
かけて	-8.68195
んと	-8.68423
吾	-8.68489
帰った	-8.68568
細君	-8.68693
田	-8.68958
?	-8.68979
帰	-8.68991
野	-8.69056
玄関	-8.69157
目的	-8.69162
観	-8.69415
丈	-8.69432
こういう	-8.69436
暮	-8.6958
と聞いた	-8.69669
しきりに	-8.7014
上の	-8.70236
変化	-8.70236
ましょう	-8.70528
影	-8.70576
論	-8.70655
いで	-8.70663
心持	-8.70698
迄	-8.70763
姉	-8.70781
ア	-8.70786
くれた	-8.71038
に向って	-8.71055
妹	-8.71106
受け	-8.71323
台	-8.71348
▁もし	-8.71385
おい	-8.71456
詩	-8.71571
冷	-8.71593
根	-8.71609
けて	-8.71677
暗い	-8.71693
絵	-8.71776
露	-8.71776
態度	-8.71788
文学	-8.71823
奴	-8.71968
やら	-8.72021
さあ	-8.72079
主	-8.7224
切り	-8.7228
下女	-8.72366
葉	-8.72398
世界	-8.72403
の上へ	-8.72471
女は	-8.72629
半分	-8.72862
しても	-8.72882
余は	-8.72947
今日は	-8.73006
額	-8.73111
立て	-8.73241
自然	-8.73246
であつた	-8.7327
発	-8.73302
行か	-8.73521
しか	-8.73524
しました	-8.73734
説明	-8.73754
問	-8.73826
仕方がない	-8.73872
もう少し	-8.73904
座敷	-8.74057
リ	-8.74069
音	-8.74173
現	-8.74228
今度は	-8.74337
奥	-8.74345
これから	-8.74607
答え	-8.74619
ほとんど	-8.7462
動か	-8.74682
赤	-8.74706
お秀	-8.74738
ずる	-8.74758
波	-8.74806
込む	-8.74847
遣	-8.74859
自分で	-8.74925
所に	-8.74964
打ち	-8.74991
反	-8.75072
帯	-8.75148
らず	-8.75357
▁また	-8.75379
書いて	-8.7544
非常に	-8.75495
兄の	-8.75511
われ	-8.7555
すれば	-8.75589
極	-8.75638
松	-8.75787
ところを	-8.76125
可	-8.76268
上げた	-8.76277
は無論	-8.76505
ようだ	-8.76518
恋	-8.76531
考えた	-8.76847
何の	-8.76882
自	-8.76893
往来	-8.76894
場合	-8.77176
昨日	-8.77243
事件	-8.77274
句	-8.77355
何を	-8.77457
代助	-8.77576
嫂	-8.77623
手紙	-8.77843
になると	-8.77849
美	-8.77901
筆	-8.77931
壁	-8.77932
の下に	-8.7805
べ	-8.7813
なに	-8.78254
交	-8.78264
とき	-8.78376
身体	-8.78384
声が	-8.78418
ざ	-8.78568
首を	-8.78777
だんだん	-8.78997
かかる	-8.79089
二つ	-8.79112
小六	-8.79158
別に	-8.79283
血	-8.7935
雲	-8.79352
チ	-8.79353
戸	-8.79387
失	-8.79434
でない	-8.79472
なくなった	-8.79488
ものと	-8.79584
んでしょう	-8.79668
買	-8.79698
ついに	-8.79701
風に	-8.7985
限	-8.80015
嫌	-8.80061
理想	-8.80081
もある	-8.8018
説	-8.80345
背	-8.80388
急	-8.80409
籠	-8.80432
死ぬ	-8.80502
を持って	-8.80587
畳	-8.80633
時分	-8.80662
懸	-8.80679
の間	-8.80707
ならない	-8.80801
退	-8.80866
の中へ	-8.8098
始めた	-8.80998
やった	-8.81014
つけて	-8.81038
廻	-8.81065
過	-8.81135
辺	-8.8132
九	-8.81372
いっしょに	-8.81503
隠	-8.81506
銭	-8.81522
はなはだ	-8.81525
あなたの	-8.81533
あなたは	-8.81589
気分	-8.81782
)	-8.81889
精神	-8.81904
遠	-8.81941
つけた	-8.82096
他の	-8.82138
定	-8.8219
原	-8.82249
ほどの	-8.8246
達	-8.82516
の方が	-8.82544
やり	-8.82568
▁それ	-8.82664
答えた	-8.82681
刻	-8.82777
ここに	-8.82823
己	-8.82928
電車	-8.82983
解釈	-8.82998
立った	-8.8301
活	-8.83114
において	-8.83132
したら	-8.83133
筋	-8.83154
怒	-8.83157
普通の	-8.83319
汽車	-8.83331
毛	-8.83358
川	-8.83362
持ち	-8.83528
の事を	-8.8365
結	-8.83676
名前	-8.83684
ありません	-8.83686
分らない	-8.83716
娘	-8.83737
なさい	-8.83749
春	-8.83912
窓	-8.83943
小林	-8.84026
ぞ	-8.84081
伝	-8.84167
▁今	-8.84328
うと	-8.84471
座	-8.84473
ほ	-8.84481
いけない	-8.84482
上げて	-8.8462
清	-8.84689
路	-8.84733
円	-8.84782
経	-8.84826
それほど	-8.84829
答	-8.84842
父の	-8.84857
カ	-8.84868
しよう	-8.84936
待	-8.84986
他	-8.8499
気を	-8.84993
坐	-8.85178
色の	-8.85185
などは	-8.85206
いろいろ	-8.85224
人間の	-8.85235
せた	-8.8531
あんな	-8.85339
士	-8.85411
置	-8.85433
くなる	-8.85501
千	-8.85617
おれ	-8.85627
の中で	-8.85638
下さい	-8.85638
巻	-8.85654
気の毒	-8.85878
りました	-8.85913
痛	-8.85915
若い	-8.85917
e	-8.85997
眠	-8.86009
物を	-8.86054
番	-8.86152
強い	-8.86185
▁それを	-8.86193
思った	-8.86204
なんて	-8.8622
ク	-8.86392
嘘	-8.86393
意識	-8.86397
▁もっとも	-8.8641
はこの	-8.86415
らなかった	-8.86452
僕が	-8.86565
足を	-8.86578
過ぎる	-8.86615
三千代	-8.86738
ことごとく	-8.86813
押し	-8.86817
広い	-8.87017
殺	-8.87147
うち	-8.87304
故	-8.87337
下宿	-8.87459
突	-8.87473
れない	-8.87622
あら	-8.87667
▁彼の	-8.87799
でき	-8.87858
寄	-8.87879
笑った	-8.88017
性質	-8.88129
それじゃ	-8.8814
逆	-8.88166
新聞	-8.88349
待ち	-8.88383
書き	-8.88529
お前	-8.88625
後で	-8.88633
細	-8.88688
さう	-8.88731
津田の	-8.8877
さま	-8.88773
▁二人は	-8.88882
心を	-8.889
頭に	-8.89009
割	-8.89105
多少	-8.89134
の中	-8.89374
御前	-8.89482
穴	-8.89512
評	-8.8955
なもの	-8.89836
要	-8.8986
善	-8.90139
ラ	-8.90227
シ	-8.90298
注意	-8.90301
ちょうど	-8.90306
そういう	-8.90391
ところが	-8.90502
され	-8.90586
わない	-8.90598
終	-8.90702
ですよ	-8.90761
以上	-8.90767
らぬ	-8.90897
許	-8.90917
美禰子	-8.91011
声を	-8.9106
▁それは	-8.91108
角	-8.91144
満足	-8.91199
勝	-8.91247
一度	-8.91457
さんが	-8.91691
一番	-8.91815
都合	-8.91856
青	-8.91969
返事	-8.92388
なければならなかった	-8.9254
研究	-8.92731
何も	-8.92754
ついた	-8.92811
第一	-8.92894
髪	-8.93128
寺	-8.93133
長く	-8.93137
いよいよ	-8.93141
寒	-8.93179
学者	-8.93201
ではなかった	-8.93274
この間	-8.93448
▁そこで	-8.93453
頬	-8.93477
わる	-8.93484
教育	-8.93557
船	-8.93622
常	-8.93659
前の	-8.93839
歩	-8.93853
公	-8.93888
約束	-8.9397
得る	-8.93976
思わ	-8.93994
少々	-8.94016
るように	-8.9402
へ行って	-8.94028
細君の	-8.94083
しまう	-8.94161
手紙を	-8.94212
、――	-8.94227
為	-8.94277
時代	-8.9438
余裕	-8.94382
のだ	-8.94444
二三	-8.94459
らん	-8.94524
つもり	-8.94533
ですね	-8.94837
後から	-8.94929
男が	-8.94932
すべて	-8.94996
息	-8.95106
先生の	-8.95128
のかい	-8.95135
赤い	-8.95136
健三	-8.95219
飯	-8.95251
私に	-8.95337
女が	-8.9536
先刻	-8.95469
かけ	-8.95741
そんなに	-8.95956
▁女は	-8.96023
節	-8.96058
あたし	-8.96063
自身	-8.9608
に違ない	-8.96086
たびに	-8.96145
るのは	-8.96169
時計	-8.96455
もっと	-8.96467
たま	-8.9667
突き	-8.96742
調子	-8.96834
と云ふ	-8.96898
▁お延は	-8.96899
平岡	-8.96899
相談	-8.9693
鳴	-8.9693
機会	-8.96937
でもない	-8.96952
先に	-8.97136
千代子	-8.97147
どうした	-8.97283
是非	-8.97332
そこ	-8.97355
なくって	-8.9754
▁健三は	-8.97571
二十	-8.97605
机	-8.97687
衣	-8.97734
余り	-8.97779
張	-8.9787
津田は	-8.98049
抱	-8.98114
三沢	-8.98174
振り	-8.9819
愚	-8.98195
小供	-8.98215
藤尾	-8.98304
一本	-8.98426
単に	-8.98459
この時	-8.98577
鏡	-8.98591
果	-8.98607
再び	-8.98632
と見えて	-8.98674
いつでも	-8.98677
医者	-8.9868
続	-8.98704
吹き	-8.98791
起る	-8.98825
聞	-8.98839
戻	-8.99062
ト	-8.99085
煙	-8.9913
談	-8.99235
がいい	-8.99254
少	-8.99373
気の	-8.99444
破	-8.99495
腰を	-8.995
教師	-8.99508
大分	-8.99892
損	-8.99926
末	-8.9993
ド	-8.99937
候	-8.99941
運命	-8.99955
まる	-9.00094
まった	-9.00211
障子	-9.00236
具	-9.00255
自由	-9.00292
けっして	-9.00365
枕	-9.00378
付け	-9.00379
越	-9.00615
部	-9.00649
先生は	-9.00772
込	-9.00802
敷	-9.00857
読み	-9.00885
▁やがて	-9.00995
ところで	-9.01022
状	-9.01261
袖	-9.01265
打	-9.01279
恐れ	-9.01283
以上は	-9.01286
彼女	-9.01346
差	-9.01413
一人で	-9.01463
何時	-9.01499
世話	-9.01547
なくっちゃ	-9.01663
遠慮	-9.0167
難	-9.01696
焼	-9.01712
敵	-9.01712
ってる	-9.01714
といって	-9.01776
あるいは	-9.02016
入った	-9.02042
灯	-9.02124
養	-9.02157
竹	-9.0216
面倒	-9.02171
とにかく	-9.0219
さんの	-9.02312
様な	-9.02348
暗	-9.02545
売	-9.0266
先へ	-9.02713
ぎり	-9.02744
広	-9.02801
彼を	-9.02853
人と	-9.0298
側	-9.03047
三人	-9.03077
限り	-9.0318
歩いて	-9.03206
婆さん	-9.03292
おや	-9.03329
ですから	-9.03346
だろうと	-9.03426
なって	-9.0344
きた	-9.03449
苦し	-9.03453
みた	-9.03456
洗	-9.03515
ついて	-9.03617
つもりで	-9.0362
書いた	-9.03826
はまだ	-9.03895
与え	-9.03955
師	-9.03964
段	-9.03998
調	-9.04
のだろう	-9.04027
消	-9.04041
▁そう	-9.04134
起った	-9.04142
糸	-9.04171
取って	-9.0419
種	-9.04215
のため	-9.04276
動く	-9.04346
主義	-9.0443
あと	-9.04445
知らぬ	-9.04473
弱	-9.04573
なし	-9.04592
至	-9.0466
......	-9.04662
彼らの	-9.04722
何とも	-9.04752
お延の	-9.04863
里	-9.04893
信	-9.04927
程度	-9.04932
弁	-9.04951
似	-9.05192
男は	-9.05324
を出して	-9.05351
できる	-9.05353
せっかく	-9.05357
小さい	-9.05359
苦痛	-9.05382
▁同時に	-9.05426
そうか	-9.05447
▁それでも	-9.05518
苦しい	-9.05756
へ出て	-9.05788
雑	-9.05818
興味	-9.05839
られない	-9.05997
島田	-9.06299
はまた	-9.06386
寸	-9.06562
懐	-9.06676
界	-9.06732
集	-9.06758
▁その上	-9.06804
いらっしゃる	-9.06873
私には	-9.06876
くれる	-9.07045
と云い	-9.07138
は何	-9.07227
板	-9.07231
の一	-9.0737
を取り	-9.07386
開	-9.07547
是	-9.07684
せて	-9.07713
反対	-9.07718
役	-9.07746
五六	-9.07747
仰	-9.07762
なん	-9.07859
無論	-9.07927
静	-9.0815
・	-9.0818
図	-9.0818
構	-9.08186
できない	-9.08216
上げ	-9.08223
皆	-9.08262
居る	-9.08313
ものだから	-9.08454
喜	-9.08458
判然	-9.08562
たり	-9.08569
甲	-9.08642
職業	-9.08665
然として	-9.08681
文芸	-9.08768
出来ない	-9.09009
大学	-9.09013
飯を	-9.09071
見当	-9.09078
底	-9.09111
腰	-9.09119
精	-9.0912
代助は	-9.09132
返事を	-9.09185
▁しかも	-9.09197
申し	-9.0924
宗助	-9.0954
考	-9.09572
ハハハハ	-9.09624
の所へ	-9.09673
西洋	-9.09693
親切	-9.09699
つき	-9.10055
っちゃ	-9.10055
あんまり	-9.10108
投げ	-9.10256
そうして	-9.10305
彼ら	-9.10317
▁其	-9.1033
熱	-9.10414
つける	-9.10472
寒い	-9.10501
閑	-9.10584
は全く	-9.10602
どっち	-9.10637
代りに	-9.10675
迷亭	-9.10707
追	-9.10814
過ぎた	-9.10852
忘れ	-9.10983
腕	-9.11085
迷惑	-9.11089
万	-9.11165
勇気	-9.1122
させる	-9.1138
袋	-9.11538
素	-9.11578
眉	-9.11579
欠	-9.11579
誰も	-9.11631
しき	-9.11702
の音	-9.11845
はもう	-9.12056
店	-9.12074
模様	-9.12092
不安	-9.12185
します	-9.12187
時には	-9.12189
振	-9.12209
毎日	-9.12218
陰	-9.12571
気がついた	-9.12621
仕事	-9.1284
留	-9.12886
話した	-9.12895
であろう	-9.12966
もなかった	-9.1298
罪	-9.13069
主人の	-9.13082
自覚	-9.131
所で	-9.1311
案内	-9.13112
進	-9.13156
▁私の	-9.13209
金を	-9.13212
帰り	-9.13285
肩	-9.13344
二階	-9.13529
質	-9.13533
まして	-9.13547
タ	-9.13574
そうです	-9.13681
になります	-9.13791
置いた	-9.13802
天下	-9.13886
やがて	-9.13942
よほど	-9.14062
状態	-9.14082
かける	-9.14115
死んだ	-9.14116
ゐる	-9.14162
出来る	-9.14181
たくさん	-9.14183
深い	-9.14327
の方に	-9.14331
ゐた	-9.14379
切って	-9.14413
方面	-9.14492
しなかった	-9.14508
かかった	-9.14548
計	-9.14559
坂	-9.14577
輪	-9.14585
▁したがって	-9.1459
上げる	-9.14628
といった	-9.147
立っている	-9.14705
とすれば	-9.1481
進んで	-9.14849
と思います	-9.14968
強	-9.1498
鉄	-9.15083
叔母	-9.15089
暇	-9.15096
フ	-9.15097
君が	-9.15244
望	-9.15521
▁さうして	-9.15622
の方で	-9.15876
すこぶる	-9.16125
博士	-9.16128
響	-9.16164
顔をして	-9.16212
ふと	-9.16236
するのは	-9.16308
すべき	-9.16398
細い	-9.1649
酒	-9.165
吾輩	-9.1651
与次郎	-9.16573
井	-9.16573
夏	-9.16643
歯	-9.16643
始終	-9.1665
運動	-9.16665
なるべく	-9.16694
右	-9.1671
少しも	-9.16721
あって	-9.16812
能	-9.16835
考える	-9.16903
所を	-9.16914
へ出た	-9.16953
困	-9.16955
見せた	-9.17074
ぽ	-9.17123
鳥	-9.1714
迷	-9.1716
谷	-9.17164
くなって	-9.17183
食う	-9.17193
同情	-9.17214
一枚	-9.17243
神経	-9.17249
積	-9.17252
得意	-9.17289
借り	-9.1732
隣	-9.17321
出て来た	-9.1735
それに	-9.17381
置く	-9.17499
▁先生は	-9.17505
▁一	-9.17595
当人	-9.17617
a	-9.17682
お嬢さん	-9.17687
予期	-9.17692
いいえ	-9.17755
上って	-9.17929
触れ	-9.17932
合せ	-9.18017
的な	-9.18178
なくては	-9.18192
和	-9.18199
秋	-9.182
すなわち	-9.18214
長蔵さん	-9.18214
掛けた	-9.18273
業	-9.18372
出し	-9.18412
空気	-9.18474
いだ	-9.18588
橋	-9.1867
んだよ	-9.18715
器	-9.18738
なので	-9.18755
がまた	-9.18768
ほかに	-9.1877
まって	-9.18776
にする	-9.18811
その後	-9.1883
あります	-9.18832
田口	-9.18919
笑い	-9.19119
耳に	-9.19158
耳	-9.19234
式	-9.19248
丁	-9.1925
周囲	-9.19275
椅子	-9.19275
▁主人は	-9.1928
▁あの	-9.19509
払	-9.19625
をしている	-9.19668
十五	-9.19681
だけに	-9.19706
愉快	-9.19741
と同じ	-9.19754
然	-9.1976
いえ	-9.1978
とうてい	-9.1981
薬	-9.1981
一言	-9.19828
学問	-9.19846
抜	-9.19886
の下	-9.19916
昔し	-9.19938
これで	-9.19942
教	-9.20017
過去	-9.2011
待って	-9.20139
存在	-9.20159
実に	-9.20189
御米	-9.20193
ないと	-9.20232
逢	-9.20285
釣	-9.20305
s	-9.20347
友達	-9.20357
全体	-9.20376
一日	-9.20431
これが	-9.20489
といふ	-9.20522
思って	-9.20561
対	-9.20723
連れて	-9.20723
照	-9.20808
よりほかに	-9.20859
という事	-9.20897
作物	-9.20926
並	-9.20948
本当に	-9.2097
処	-9.21251
這入って	-9.21366
威	-9.2143
箱	-9.21431
かり	-9.2147
生徒	-9.21519
青年	-9.21532
書物	-9.21577
絶	-9.21599
入れ	-9.21765
▁こんな	-9.21769
立てて	-9.21797
なき	-9.21802
掛けて	-9.21831
類	-9.21937
あの女	-9.21941
及	-9.21956
ちっとも	-9.21972
▁三	-9.21995
なくなる	-9.22162
高く	-9.22297
記	-9.22333
途	-9.22361
さない	-9.22368
日に	-9.22438
約	-9.22521
廊下	-9.22527
道徳	-9.2255
感じた	-9.22668
今度	-9.22703
からである	-9.22719
若	-9.22779
容易に	-9.22811
んでいる	-9.22818
のよ	-9.22941
落ちた	-9.22956
ずつ	-9.2301
って来た	-9.23042
批評	-9.23079
責任	-9.23083
遠く	-9.23092
着いた	-9.23094
認め	-9.23126
比較的	-9.23134
止	-9.23151
なった	-9.23251
話して	-9.23307
ざる	-9.23421
在	-9.23608
知ってる	-9.23633
幅	-9.23635
喧嘩	-9.23635
良	-9.23636
判	-9.23642
坑夫	-9.23663
母の	-9.23749
老	-9.23765
よりは	-9.23812
然と	-9.23904
なかろう	-9.23911
生きて	-9.23991
黙	-9.24028
義	-9.24031
休	-9.24121
▁いくら	-9.24143
短	-9.24162
京都	-9.24197
何う	-9.24231
々と	-9.24239
未来	-9.24283
着物	-9.24285
或	-9.24318
近頃	-9.24326
あたり	-9.2434
がなかった	-9.24451
の上	-9.24538
知らず	-9.24582
▁細君は	-9.24594
はあ	-9.24685
願	-9.24735
射	-9.2474
t	-9.24748
河	-9.24756
さっき	-9.24757
離	-9.24785
家へ	-9.24819
三十	-9.24908
日の	-9.25058
老人	-9.25189
▁二	-9.25226
揺	-9.253
知れ	-9.25303
早	-9.25311
須永	-9.2532
柱	-9.25321
たちまち	-9.25321
によると	-9.25359
やめ	-9.25531
入口	-9.25539
▁そうしてその	-9.25662
這入	-9.2573
んだが	-9.25764
寒月君	-9.25803
飛	-9.25809
もまた	-9.25838
なさ	-9.25866
者は	-9.25916
不愉快	-9.25962
初さん	-9.25989
深	-9.26304
辞	-9.26445
油	-9.2646
ロ	-9.2646
包	-9.2648
趣味	-9.26485
活動	-9.26522
が悪い	-9.26611
▁小野さんは	-9.26624
自分と	-9.26724
ですが	-9.26804
へ行く	-9.26828
更	-9.26861
僕も	-9.26979
つかない	-9.27001
しろ	-9.27017
食い	-9.27025
始め	-9.27026
犬	-9.27034
矛盾	-9.27034
充分	-9.27035
らした	-9.27102
いった	-9.27207
どうせ	-9.27238
来ない	-9.27461
間違	-9.27511
いつも	-9.2753
落ちて	-9.27549
院	-9.27596
返した	-9.27599
むやみに	-9.27613
随分	-9.27632
癖	-9.27674
登	-9.27746
無理	-9.27782
時の	-9.27787
乗	-9.27788
▁その代り	-9.27823
自己	-9.27851
る事	-9.27853
首	-9.27968
他人	-9.28001
ものであった	-9.28017
心に	-9.28017
確	-9.28143
見ている	-9.28144
ります	-9.28191
か分らない	-9.28193
音が	-9.28273
を見ると	-9.28299
ものに	-9.28589
つまり	-9.28681
岡田	-9.28716
心の	-9.28728
驚ろいた	-9.28779
大抵	-9.28779
立派な	-9.28779
返して	-9.28798
新らしい	-9.28863
君に	-9.28895
それだけ	-9.2896
機	-9.29057
考へ	-9.29087
運	-9.29179
などと	-9.29312
っても	-9.2932
俗	-9.29367
歌	-9.29367
列	-9.29368
赤シャツ	-9.2937
ねばならぬ	-9.29371
病院	-9.29386
悪く	-9.29497
不思議	-9.29539
言い	-9.29714
にゃ	-9.29736
お延は	-9.29751
昔の	-9.29755
家に	-9.29766
だけの	-9.29766
敬太郎	-9.29772
関	-9.29786
▁こう	-9.29876
棒	-9.29953
顔を見	-9.29993
らしかった	-9.29996
切れ	-9.30056
一度に	-9.30072
単	-9.30184
玉	-9.30332
ゝ	-9.30335
の色	-9.30352
や否や	-9.30372
注	-9.30509
襟	-9.30554
髯	-9.30555
北	-9.30555
発展	-9.30559
必ず	-9.30616
口に	-9.30666
ならん	-9.30691
はまるで	-9.30803
極めて	-9.30891
にいる	-9.30935
看護婦	-9.31153
やろう	-9.31223
済ま	-9.31392
写	-9.31652
の御	-9.31681
▁兄は	-9.31714
香	-9.31747
胃	-9.31755
たしか	-9.31758
連	-9.31807
の影	-9.31916
ようで	-9.31943
主人は	-9.31969
すら	-9.32052
どこへ	-9.32149
いかに	-9.32204
卒業	-9.3223
全	-9.32305
配	-9.32317
支	-9.32321
o	-9.32356
劇	-9.32356
明日	-9.32392
大いに	-9.32408
細君は	-9.32421
下へ	-9.32434
われる	-9.3265
(	-9.32679
承知	-9.32732
たら	-9.3274
心持ち	-9.32762
彼に	-9.32874
膝	-9.32896
西	-9.32964
夫の	-9.33005
呼び	-9.33152
いらっしゃい	-9.33195
子の	-9.33209
合う	-9.33283
によって	-9.33321
のまま	-9.33347
東	-9.33465
十二	-9.33508
昼	-9.33557
村	-9.33584
家を	-9.33584
とした	-9.3361
見ても	-9.33611
の上で	-9.33625
にならない	-9.33643
驚いた	-9.33663
るべき	-9.33709
纏	-9.33711
せぬ	-9.33826
真面目	-9.33845
今日まで	-9.33894
からね	-9.34019
満	-9.3405
静かな	-9.34079
存	-9.34091
貴方	-9.34105
なんだ	-9.34128
従	-9.34158
境	-9.342
靴	-9.34203
こちら	-9.34203
御母さん	-9.34206
ちゃんと	-9.34253
健三の	-9.34261
入れた	-9.34267
のうちで	-9.34285
▁敬太郎は	-9.34325
けば	-9.34356
みると	-9.34388
服	-9.34548
差し	-9.34604
席	-9.34635
後に	-9.34663
笑う	-9.34694
どうだ	-9.34702
るもの	-9.34719
がね	-9.34745
行こう	-9.34829
平生	-9.34829
かも知れません	-9.34931
電話	-9.34995
だけが	-9.35056
聞くと	-9.35078
の底	-9.3509
じた	-9.35091
諸君	-9.35097
貰う	-9.35178
自己の	-9.35217
かかって	-9.35251
ぼんやり	-9.35449
ジ	-9.35449
義務	-9.35454
えば	-9.35456
身を	-9.35605
ここで	-9.35643
書生	-9.35668
だらう	-9.35814
してしまった	-9.35853
じて	-9.35853
あるまい	-9.35871
軒	-9.35878
宅へ	-9.35961
火鉢	-9.36094
行かない	-9.36104
解らない	-9.36199
▁君	-9.36312
▁そのうち	-9.3632
といっしょに	-9.36351
共	-9.36407
どうです	-9.36417
宗助は	-9.36424
蒼	-9.36432
快	-9.36567
東京へ	-9.36679
コ	-9.36709
唐	-9.3671
勉強	-9.3671
南	-9.3671
賞	-9.3671
涙	-9.3671
滑	-9.36711
観察	-9.36717
理由	-9.3672
彼等	-9.36763
聴	-9.36821
▁ことに	-9.36844
合わ	-9.36879
変な	-9.36886
取った	-9.36914
考えると	-9.36927
いかにも	-9.3694
詰	-9.37046
日本の	-9.3713
を見る	-9.37172
さも	-9.3719
はただ	-9.37287
下に	-9.37298
流れ	-9.37323
紅	-9.37347
山嵐	-9.37354
散歩	-9.3736
▁母は	-9.37368
とかいう	-9.37492
馳け	-9.37497
ここへ	-9.37513
乗り	-9.37535
おう	-9.3778
柄	-9.37803
礼	-9.37833
趣	-9.37906
線	-9.37949
布	-9.37969
幸福	-9.3799
事情	-9.37993
小野さん	-9.38028
りに	-9.38164
と云いながら	-9.3821
くって	-9.38273
構わない	-9.38374
のうち	-9.38376
代助の	-9.38396
握	-9.38411
▁それに	-9.38573
垣	-9.38617
キ	-9.38619
透	-9.38634
内に	-9.38737
傍に	-9.38755
姿	-9.38796
事がない	-9.38811
吹	-9.38853
だろうか	-9.38953
したり	-9.39036
へえ	-9.39217
騒	-9.39254
堂	-9.39257
附	-9.39282
初	-9.39366
おります	-9.39441
云ふ	-9.39534
安心	-9.39659
彼が	-9.39686
被	-9.39697
▁父は	-9.39724
そのまま	-9.39758
ようと	-9.39818
お重	-9.39825
胸に	-9.39826
を聞いて	-9.39845
らし	-9.39846
行くと	-9.39887
何とか	-9.39931
造	-9.39932
浅	-9.39936
膳	-9.39936
昨夕	-9.39937
偶然	-9.3994
田舎	-9.39942
留守	-9.39945
見え	-9.39949
散	-9.40005
古い	-9.40011
と云うのは	-9.40095
に見える	-9.40118
何しろ	-9.40144
方の	-9.4021
様子を	-9.40222
前後	-9.40244
しゃ	-9.40283
独	-9.40312
頭の	-9.40393
起き	-9.40491
的の	-9.40512
狂	-9.40518
黄	-9.40527
買って	-9.40672
にした	-9.40702
おれの	-9.40866
読んで	-9.40952
まえ	-9.40976
のだと	-9.41136
舌	-9.41256
ぴ	-9.41256
芝居	-9.41262
羽織	-9.41262
よし	-9.41316
自然の	-9.41329
腹の中で	-9.4138
または	-9.41396
のなかに	-9.4147
決して	-9.41502
ったり	-9.41505
私も	-9.41607
の関係	-9.41612
書斎	-9.41646
駄目だ	-9.41821
先方	-9.41862
保	-9.41915
よっぽど	-9.41923
怖	-9.41926
いると	-9.41926
だけであった	-9.41947
の方から	-9.42015
点において	-9.42037
ないので	-9.42104
見えない	-9.42174
独り	-9.42177
外に	-9.42216
ゆ	-9.42238
逃げ	-9.42238
方を	-9.42298
世の中に	-9.42307
しまい	-9.42346
最も	-9.42371
申	-9.42478
社	-9.42497
奇	-9.42592
希望	-9.42594
枝	-9.42594
戦争	-9.42598
背中	-9.42643
大丈夫	-9.42716
云	-9.42909
強く	-9.43005
しかも	-9.43168
いわゆる	-9.43274
これも	-9.43281
かつ	-9.43285
甲野さん	-9.43364
云えば	-9.43445
などを	-9.43447
狭い	-9.43461
云うと	-9.4361
した時	-9.43626
ても	-9.43677
午	-9.43705
げて	-9.43726
当時	-9.43768
の如く	-9.43822
のだが	-9.43834
皮	-9.43932
閉	-9.4395
テ	-9.43951
坊主	-9.43963
にとって	-9.43991
景色	-9.44006
だと云う	-9.44022
ことに	-9.44115
開け	-9.44178
を引き	-9.44224
参	-9.44244
同様	-9.44248
得た	-9.44274
生れた	-9.44385
れている	-9.44399
かと思うと	-9.44479
姿を	-9.44536
張り	-9.44612
尾	-9.44613
職	-9.44624
戦	-9.44631
銀	-9.44634
いつの間にか	-9.44635
軽蔑	-9.44637
議論	-9.44644
なくっても	-9.44684
具合	-9.44702
事はない	-9.44714
もしくは	-9.44728
の結果	-9.44739
方に	-9.44748
乱	-9.44836
縁側	-9.44842
はなかった	-9.44845
返す	-9.44908
一寸	-9.44921
通る	-9.4493
事だ	-9.44943
遊	-9.45009
顔は	-9.45019
いても	-9.45063
はい	-9.45176
私を	-9.45247
われた	-9.45293
視	-9.45316
費	-9.45321
倍	-9.45325
著	-9.45325
墓	-9.45325
マ	-9.45357
▁何	-9.45458
方角	-9.45495
洋	-9.45516
込め	-9.45521
する事	-9.45524
忘れて	-9.45615
格	-9.4566
▁おれは	-9.45783
話す	-9.45809
して見ると	-9.45814
になり	-9.45842
遠い	-9.45849
だな	-9.45929
すと	-9.45966
考えている	-9.45996
ニ	-9.46019
号	-9.46019
の中を	-9.46164
特	-9.46425
見せ	-9.46504
という意味	-9.46556
泊	-9.46716
いっこう	-9.46722
を受けた	-9.46745
貰	-9.46799
の方	-9.4683
誘	-9.46906
にしても	-9.4691
下りて	-9.46928
一面に	-9.46967
太	-9.47099
せん	-9.47183
一口	-9.47207
云われ	-9.47244
分る	-9.47309
叔父さん	-9.47324
たとい	-9.47352
先生が	-9.47354
羽	-9.47416
伺	-9.47422
もいい	-9.47436
るような	-9.47457
任	-9.47526
負	-9.4765
目の	-9.47721
映	-9.47728
頭が	-9.47808
ないから	-9.47859
せば	-9.47881
届	-9.47907
じっと	-9.47969
くらいな	-9.47992
▁なるほど	-9.48017
真中	-9.48204
なさる	-9.48206
と主人は	-9.4821
の中から	-9.4822
学生	-9.48226
己れ	-9.48232
と考えた	-9.48265
嫁	-9.48286
もあった	-9.48294
其所	-9.48317
して来た	-9.48341
便	-9.48416
呑	-9.48614
生き	-9.48662
男だ	-9.48833
刀	-9.48847
見せる	-9.48849
眺めた	-9.48873
かなかった	-9.48887
の方は	-9.48913
兄が	-9.48957
の意味	-9.49244
食って	-9.49295
切った	-9.49317
その日	-9.49343
と言った	-9.49348
おいて	-9.49374
までは	-9.49408
深く	-9.49409
横に	-9.49451
軽	-9.49461
容	-9.495
恐	-9.49528
のさ	-9.49528
というのは	-9.49534
と同時に	-9.49539
術	-9.49545
貸	-9.49566
紫	-9.49566
逼	-9.49566
価値	-9.49567
ませんでした	-9.49581
区別	-9.49584
違う	-9.49596
形式	-9.49599
どうぞ	-9.4963
つてゐた	-9.49662
いわ	-9.49669
上る	-9.49799
水を	-9.49819
▁もう	-9.49846
るのが	-9.49856
男の	-9.49866
に来た	-9.49897
一歩	-9.49908
の上を	-9.4993
潜	-9.50034
かし	-9.50046
の通り	-9.50103
夫人	-9.50128
正面	-9.50129
人物	-9.5018
上り	-9.50196
働	-9.5027
市	-9.50283
矢	-9.50289
隔	-9.5029
魂	-9.5029
生涯	-9.50291
オ	-9.50291
るんだ	-9.50315
せない	-9.5034
ほかの	-9.50391
笑いながら	-9.50405
平気で	-9.50454
というもの	-9.50505
んだね	-9.50533
入って	-9.50573
ければ	-9.50602
何が	-9.50747
質問	-9.50752
ところへ	-9.50825
と云うと	-9.50896
固より	-9.50905
面白	-9.50919
つつある	-9.50922
今夜	-9.50933
弟	-9.50997
i	-9.51004
蔵	-9.51012
王	-9.51019
冗談	-9.5102
掘	-9.5102
穏	-9.5102
領	-9.51021
つつ	-9.51084
毫も	-9.51084
言う	-9.51149
となく	-9.51198
▁自分が	-9.51233
あつた	-9.51237
出て来る	-9.51284
どこか	-9.51286
年の	-9.51394
誰が	-9.5142
そこへ	-9.5143
いって	-9.51471
事が出来	-9.51561
眼が	-9.51653
期	-9.517
▁自分の	-9.51702
皿	-9.51756
淋しい	-9.51756
叙述	-9.51757
おいた	-9.51772
そう云う	-9.51779
りする	-9.51935
者の	-9.52018
顔が	-9.5202
折れ	-9.52057
やしない	-9.52061
抜け	-9.52066
▁今まで	-9.52095
できた	-9.52096
換	-9.52318
知り	-9.52367
の前で	-9.52416
幕	-9.52496
証拠	-9.52497
微笑	-9.52512
交際	-9.52521
通じ	-9.52524
義理	-9.52526
余が	-9.52575
それでも	-9.52755
盛	-9.52786
際	-9.52812
真似	-9.52822
そこで	-9.52901
ようです	-9.53017
調子で	-9.53071
だけを	-9.53084
山の	-9.53163
を取って	-9.53202
人間は	-9.53217
守	-9.53232
牛	-9.53241
ついでに	-9.53241
に相違ない	-9.53253
方は	-9.53261
んじゃない	-9.53267
御覧	-9.53291
色を	-9.5332
やう	-9.53353
右の	-9.53415
何となく	-9.53415
くて	-9.53499
なあ	-9.53518
二度	-9.53611
一般	-9.53641
追い	-9.5365
こうして	-9.53661
へ来て	-9.53672
嫁に	-9.53781
つてゐる	-9.53817
遺	-9.53994
講義	-9.54
ありました	-9.54005
母が	-9.54027
影響	-9.54107
知らなかった	-9.54113
しまいに	-9.54125
無い	-9.54211
はたして	-9.54229
兄さんは	-9.54239
近く	-9.543
かれ	-9.54326
染	-9.54371
向うの	-9.54422
爺さん	-9.54427
してくれ	-9.54509
隣り	-9.54523
意見	-9.54555
案	-9.5457
個人	-9.54572
烈	-9.54616
なんだから	-9.54628
どこから	-9.54684
島	-9.54734
ナ	-9.54752
覚悟	-9.54766
別段	-9.54787
これほど	-9.54839
りながら	-9.54887
後の	-9.54968
は少し	-9.54972
▁私が	-9.55096
であるから	-9.55119
坐って	-9.55122
所が	-9.55175
我々	-9.55205
感じが	-9.55236
加え	-9.55238
読	-9.55255
まし	-9.55338
付いて	-9.55357
順	-9.55506
紹介	-9.55514
厳	-9.55515
菓子	-9.55525
云わ	-9.55562
文字	-9.55609
とか云う	-9.55684
眺め	-9.55786
ばかりで	-9.55899
▁第一	-9.55937
ますます	-9.55996
▁これが	-9.56
言った	-9.56159
なんぞ	-9.56267
焦	-9.56282
城	-9.56284
茶碗	-9.56284
鼠	-9.56285
泥棒	-9.56291
両方	-9.56298
あすこ	-9.56308
はありません	-9.56343
むずかしい	-9.56382
あなた方	-9.56502
を着て	-9.56544
どうでも	-9.56572
下女が	-9.56634
去る	-9.56729
帰って来た	-9.56777
と云う事	-9.56834
去	-9.56868
かも知れないが	-9.56873
あれは	-9.56931
伴	-9.56956
珍	-9.56999
徳	-9.57016
浪	-9.57059
あたかも	-9.57059
儘	-9.5706
員	-9.5706
恥	-9.5706
打ち明け	-9.57077
小僧	-9.57079
何だ	-9.57083
ったら	-9.57095
てしまった	-9.57122
しなければ	-9.57133
新しい	-9.57194
書く	-9.57318
不平	-9.57364
屋の	-9.5738
べく	-9.57412
万事	-9.57418
押	-9.57491
はあるまい	-9.57647
好き	-9.57661
本当	-9.57693
の名	-9.57714
もんだ	-9.57743
助	-9.57817
n	-9.57819
条	-9.57838
圧	-9.5784
塔	-9.5784
略	-9.57841
魚	-9.57841
貴	-9.57849
とする	-9.57951
あなたに	-9.57977
ではありません	-9.58177
ゃ	-9.58374
おいで	-9.58587
見たい	-9.58595
無理に	-9.58618
雑誌	-9.58628
豆	-9.58629
灰	-9.58629
理窟	-9.58633
勘定	-9.58635
現象	-9.58638
三四郎は	-9.5864
成功	-9.58641
一人の	-9.58648
いったい	-9.5865
科	-9.58657
るる	-9.58681
自分も	-9.58746
させ	-9.5876
▁吾輩は	-9.58781
友	-9.58783
談話	-9.59046
るほど	-9.59047
想	-9.59056
春の	-9.59058
毎	-9.59148
走	-9.59219
使う	-9.59329
今でも	-9.59332
優	-9.59372
興	-9.59388
局	-9.5941
酔	-9.59415
縫	-9.59422
弾	-9.59422
内容	-9.59459
たゞ	-9.59473
りません	-9.5951
してゐる	-9.59515
らして	-9.59524
そうさ	-9.59596
音を	-9.59706
になっている	-9.59756
母は	-9.59761
遥か	-9.59777
ごと	-9.59809
人情	-9.59831
開いて	-9.59856
駄目	-9.59879
▁彼らは	-9.59883
入れて	-9.59926
勧め	-9.59958
ごとに	-9.60136
癖に	-9.60138
と見える	-9.60173
兼	-9.60221
ウ	-9.60222
爪	-9.60222
増	-9.60222
英語	-9.6024
席を	-9.60249
真面目に	-9.60256
ことによると	-9.60261
ようになった	-9.6028
生れ	-9.60284
留め	-9.60298
覚え	-9.60343
気色	-9.60371
天気	-9.60394
声で	-9.6043
台所	-9.60446
子が	-9.60485
付けて	-9.60489
さんに	-9.60491
が好い	-9.60495
中の	-9.60546
げた	-9.60549
ここまで	-9.60623
歩く	-9.60655
感心	-9.60718
左右	-9.60725
来ると	-9.60757
▁しまいに	-9.60893
易	-9.60907
健三は	-9.60933
になりました	-9.60938
非	-9.60972
推	-9.61023
しさ	-9.61036
現在	-9.61051
現代	-9.61087
下駄	-9.61088
に行った	-9.611
上った	-9.61138
次	-9.61189
させた	-9.61219
の方を	-9.61282
こう云う	-9.61306
後ろ	-9.61306
ならなかった	-9.61358
の前へ	-9.61597
があるから	-9.61642
入る	-9.61705
鉢	-9.6182
習	-9.61841
パ	-9.61841
ム	-9.61842
ほか	-9.61858
が出る	-9.61924
馬鹿に	-9.61933
入り	-9.61987
さえすれば	-9.61994
のなか	-9.62013
と思い	-9.62061
へ行った	-9.62207
受けた	-9.62221
遅	-9.62235
降り	-9.62281
をつけて	-9.6234
貰って	-9.62353
ときは	-9.6238
▁なぜ	-9.62393
これだけ	-9.62411
兄さんの	-9.62476
父は	-9.62532
針	-9.62583
飾	-9.62655
ウィリアム	-9.62661
総	-9.62661
伸	-9.62662
加減	-9.62663
▁然し	-9.62696
橋本	-9.62739
這	-9.62754
美しい	-9.62771
金田	-9.62782
合った	-9.62862
次の	-9.62891
高木	-9.62897
懸け	-9.63032
知っている	-9.63045
と云わ	-9.63082
三度	-9.63092
決心	-9.63113
脳	-9.63182
所は	-9.63262
なんです	-9.63471
旧	-9.63488
以外に	-9.63493
でしょうか	-9.63546
どこまでも	-9.6355
失礼	-9.63553
彼には	-9.63574
つまらない	-9.63602
継子	-9.63642
不思議な	-9.63655
死んで	-9.63667
上がって	-9.63773
歩いた	-9.63835
てくれ	-9.63842
離れ	-9.63849
捕	-9.6394
大した	-9.64153
をやる	-9.64193
人間が	-9.64212
るところ	-9.64254
含	-9.64258
価	-9.64305
富	-9.64306
縮	-9.64314
危	-9.64316
封	-9.64318
箸	-9.64321
貧	-9.64321
策	-9.64321
滑稽	-9.64321
性格	-9.6435
日が	-9.64374
気味	-9.64418
込み	-9.64466
ごろ	-9.64481
返し	-9.64754
でもある	-9.64931
過ぎ	-9.64941
叔母さん	-9.64981
どうする	-9.65011
相手の	-9.65017
▁御米は	-9.65031
欲	-9.65113
だという	-9.65141
漫	-9.65161
括	-9.65161
傘	-9.65161
沈	-9.65166
わからない	-9.65195
済む	-9.65205
どころ	-9.65263
礼を	-9.65298
人格	-9.65318
野々宮さん	-9.65444
たった	-9.65462
主人が	-9.65536
示	-9.65553
落ちついて	-9.65556
我慢	-9.65598
僕に	-9.65656
が来た	-9.65724
下から	-9.65759
から見ると	-9.65771
接	-9.65799
述べた	-9.6593
知って	-9.6599
▁四	-9.65997
広田先生	-9.66008
樹	-9.66009
邪魔	-9.6601
▁実は	-9.66018
したい	-9.66019
えらい	-9.66019
に違いない	-9.66023
存外	-9.66071
るか	-9.66162
門を	-9.66234
おれは	-9.66314
明け	-9.66325
りした	-9.66365
まり	-9.66368
のではない	-9.66411
の念	-9.66556
うちは	-9.66631
すべての	-9.66633
ないように	-9.6669
のみならず	-9.66708
ようとする	-9.66721
やっと	-9.66732
問題を	-9.66782
拭	-9.66782
常に	-9.66784
立っていた	-9.66848
に行く	-9.66858
仏	-9.66863
偽	-9.66863
磨	-9.66864
恰好	-9.66866
踏み	-9.66926
多く	-9.66944
はずだ	-9.66987
地位	-9.66994
乗って	-9.67089
面を	-9.67095
耳を	-9.67119
厭な	-9.67125
いざ	-9.67142
は今	-9.67177
面に	-9.67187
とても	-9.67275
十六	-9.67296
われて	-9.67315
同じ事	-9.67369
て来た	-9.67461
学校の	-9.6749
顔に	-9.67561
仲	-9.67566
小野さんは	-9.67589
の話	-9.67601
静かに	-9.6763
過ぎて	-9.67654
門野	-9.67673
しようと	-9.67701
風呂	-9.67706
温	-9.67724
柳	-9.67725
捲	-9.67726
人生	-9.67726
演説	-9.6774
▁私	-9.67752
旅行	-9.67756
同時に	-9.67764
文句	-9.67783
住	-9.67842
だした	-9.67874
引っ	-9.67936
るや否や	-9.6799
しなければならない	-9.68032
大に	-9.68101
そんな事を	-9.68169
になつた	-9.68208
鳴る	-9.68213
元の	-9.68283
自ら	-9.68291
題	-9.68304
今に	-9.68343
刺	-9.68356
を離れて	-9.68359
掛け	-9.68385
に見えた	-9.68398
馬車	-9.68573
たって	-9.68582
鈴	-9.68595
小さな	-9.68595
星	-9.68595
はすぐ	-9.68597
▁実際	-9.68597
姉さん	-9.68606
椽側	-9.68632
相違	-9.6865
用事	-9.68727
ゐ	-9.68746
会った	-9.6884
前へ	-9.68864
おっしゃる	-9.68972
たいてい	-9.69049
受取	-9.69115
動いて	-9.69184
寄せて	-9.69217
芸術	-9.69244
所作	-9.69244
もしない	-9.6932
ほどに	-9.69325
世に	-9.69361
森	-9.69422
傾	-9.69431
干	-9.69469
漢	-9.69472
ツ	-9.69472
岸	-9.69472
かも知れぬ	-9.69472
窮屈	-9.69477
知識	-9.69483
以来	-9.69499
動き	-9.69504
▁そんな	-9.6951
いろいろな	-9.69526
食った	-9.69553
喰	-9.69558
撫で	-9.69566
戸を	-9.69571
家庭	-9.69622
それぎり	-9.69623
与	-9.69653
改	-9.69666
して見た	-9.69689
最初	-9.69722
延び	-9.69753
吾輩の	-9.69761
当分	-9.69784
かつて	-9.69895
五十	-9.69898
事で	-9.69971
道を	-9.70007
いと	-9.70066
ぼく	-9.70106
室の	-9.70169
んですよ	-9.70238
場所	-9.70238
岡	-9.70259
くり	-9.70308
束	-9.70346
綿	-9.70357
儀	-9.70358
御父さん	-9.70361
そんな事	-9.70367
頼	-9.70395
子を	-9.70486
の顔を見た	-9.70535
茶の間	-9.70592
金の	-9.70598
連中	-9.70621
ならぬ	-9.70648
気で	-9.70697
眺めている	-9.70714
となって	-9.70745
這入る	-9.70753
後を	-9.70775
送って	-9.70794
来た時	-9.70904
暑	-9.70927
作用	-9.70947
ちと	-9.70951
勝手	-9.70998
いつまでも	-9.71011
そら	-9.71025
相手	-9.71026
いれば	-9.71063
継	-9.71083
そうである	-9.71098
硝子	-9.71164
組	-9.7117
を眺めた	-9.71185
ないで	-9.71193
言葉は	-9.71193
揃	-9.71222
窮	-9.71233
織	-9.71237
産	-9.71244
材料	-9.71249
盆	-9.7125
鈍	-9.7125
才	-9.7125
見たら	-9.71261
機嫌	-9.71273
表情	-9.71339
せられた	-9.7136
家は	-9.71369
特色	-9.71432
探	-9.71441
つま	-9.71452
応	-9.7147
敬太郎は	-9.71489
はある	-9.71598
んですもの	-9.71605
あなたが	-9.71606
者が	-9.71613
落した	-9.71812
黙っていた	-9.71859
貰った	-9.71874
正直	-9.71909
三日	-9.71947
今朝	-9.71967
依然として	-9.71982
当然	-9.71994
了	-9.72028
飛んで	-9.72081
演	-9.72131
中で	-9.72132
停車場	-9.72151
虫	-9.72151
岩	-9.72152
支那	-9.72155
危険	-9.72155
因果	-9.72161
明治	-9.72178
発達	-9.72191
判断	-9.72211
心が	-9.72222
始めから	-9.72246
双方	-9.72257
歩き	-9.72295
三つ	-9.72303
低い	-9.72311
が出来	-9.72353
寒月	-9.7238
宗近君	-9.72383
崩	-9.72398
酒を	-9.724
茶を	-9.72403
寝ている	-9.7246
を受けて	-9.72473
坊	-9.7254
繰	-9.7255
逢う	-9.72554
▁K	-9.72581
重い	-9.72651
おっしゃ	-9.72668
られている	-9.72745
派	-9.72757
云え	-9.72795
芸	-9.72846
収	-9.72977
坐った	-9.72982
してゐた	-9.73009
久	-9.7302
害	-9.73039
護	-9.73049
占	-9.73059
煮	-9.7306
冬	-9.7306
ヴ	-9.7306
荒	-9.7306
頁	-9.7306
滅	-9.7306
服装	-9.73067
軍	-9.7307
形容	-9.73092
▁御	-9.73186
段々	-9.73235
特別	-9.73258
誰か	-9.73284
足音	-9.73324
本当の	-9.73393
合って	-9.7341
色々	-9.73431
繰り	-9.73496
と云つた	-9.73557
いていた	-9.73575
だい	-9.73601
少しは	-9.73612
おく	-9.73633
事実を	-9.73654
権	-9.73882
生れて	-9.739
合せた	-9.73905
地に	-9.73927
吉	-9.73928
添	-9.73948
仕方がないから	-9.73949
辛	-9.73965
泥	-9.73966
▁どうも	-9.73969
ずいぶん	-9.73978
咽喉	-9.73978
癒	-9.73978
外套	-9.7398
文章	-9.73988
開化	-9.74013
さなかった	-9.74024
得ない	-9.74058
と自分は	-9.74066
尻	-9.74066
上から	-9.74112
四十	-9.74122
にくい	-9.74184
力を	-9.74202
▁小林は	-9.74226
見せて	-9.74307
と言う	-9.74357
着け	-9.74361
顔をした	-9.74366
と云つて	-9.7438
▁(	-9.7442
受	-9.74445
あて	-9.74497
りを	-9.74527
負け	-9.74602
好く	-9.7461
青い	-9.74613
妙	-9.74632
の顔を見て	-9.74638
じゃありません	-9.74752
ものの	-9.74879
だと思う	-9.7489
袴	-9.74896
弄	-9.74903
ダ	-9.74903
禅	-9.74903
杉	-9.74904
唇	-9.74904
できて	-9.74971
二人は	-9.74981
信用	-9.7499
心持が	-9.74992
二郎	-9.75007
ありがたい	-9.75086
はずがない	-9.75089
し得る	-9.75224
婦人	-9.75261
加	-9.75299
したもの	-9.75314
能く	-9.75353
いかん	-9.75354
五分	-9.75469
軽く	-9.75587
させて	-9.7562
った時	-9.75751
尺	-9.75753
レ	-9.75782
予	-9.75793
にでも	-9.75821
京	-9.75823
ハ	-9.7583
摺	-9.75834
挟	-9.75838
刺戟	-9.75838
空を	-9.75845
意志	-9.75852
さすが	-9.75913
ものがある	-9.7594
細君が	-9.75945
ものではない	-9.76015
あらわ	-9.7602
まれ	-9.76037
向いた	-9.76109
叔父の	-9.76149
送	-9.76159
いうと	-9.76345
変り	-9.76378
気の毒な	-9.76396
よい	-9.76396
▁しかしその	-9.76516
次第	-9.76591
思わず	-9.76682
女に	-9.76684
固	-9.76718
甘	-9.76781
相変らず	-9.76781
お貞さん	-9.76782
片づけ	-9.76785
からぬ	-9.76785
布団	-9.76787
でございます	-9.76787
おかしい	-9.76788
の姿	-9.76811
感情	-9.76857
文明	-9.76903
半ば	-9.7691
かして	-9.76952
十七	-9.76982
ばかりである	-9.77029
という言葉	-9.77041
なしに	-9.77063
てゐる	-9.7711
書いてある	-9.77192
の裏	-9.77208
夕	-9.77268
の縁	-9.77289
歴史	-9.77393
かれた	-9.77423
たしかに	-9.77531
風の	-9.77632
亡	-9.77639
日を	-9.7768
r	-9.77711
それより	-9.77723
減	-9.77727
エ	-9.77734
壺	-9.77734
憚	-9.77734
輝	-9.77734
蛇	-9.77734
お兼さん	-9.77735
残念	-9.77791
なります	-9.77797
一時	-9.77823
寝た	-9.77842
違って	-9.77848
好きな	-9.77871
てゐた	-9.77917
恐ろしい	-9.77995
いつか	-9.78006
上がる	-9.7802
その中に	-9.78036
廻って	-9.78041
おらん	-9.78096
十年	-9.781
早い	-9.7821
煙草	-9.78281
済	-9.78299
せいか	-9.78361
寐	-9.78435
塗	-9.78442
通りに	-9.78466
眼の前に	-9.78487
目を	-9.78514
食べ	-9.78523
が急に	-9.78529
尻を	-9.78593
下の	-9.78597
やかな	-9.78607
かぬ	-9.78618
▁今度は	-9.78648
往	-9.78655
浴	-9.78683
印	-9.7869
砂	-9.78695
劣	-9.78695
塞	-9.78695
仕方なしに	-9.78695
択	-9.78695
剣	-9.78696
専門	-9.78709
権利	-9.78717
つもりだ	-9.78735
▁高柳君は	-9.78756
場合に	-9.78764
出て来て	-9.7877
来ました	-9.78781
手拭	-9.78787
呑み	-9.78849
手前	-9.78856
と同じ事	-9.78859
読者	-9.78919
襖	-9.78926
するもの	-9.79024
旨い	-9.7912
坐っている	-9.79141
困った	-9.79206
張って	-9.79241
読む	-9.79247
呉れ	-9.79251
妙に	-9.79279
の底に	-9.79302
付いた	-9.79322
とすると	-9.79336
▁つまり	-9.79349
彼女に	-9.79449
地面	-9.79459
踏	-9.79533
比較	-9.79557
高柳君	-9.79605
らるる	-9.79616
復	-9.79644
否	-9.79651
好意	-9.79652
l	-9.79656
デ	-9.79666
h	-9.79666
愛嬌	-9.79667
試験	-9.79669
だと思って	-9.79699
岡本	-9.79722
眼の	-9.79735
やかに	-9.79764
道楽	-9.79816
日は	-9.79832
物の	-9.79924
同じく	-9.79977
消え	-9.79989
静か	-9.80007
悲	-9.80022
よかろう	-9.80088
それまで	-9.80129
ゆる	-9.80259
並んで	-9.80325
もせず	-9.80346
の口から	-9.80408
障	-9.80433
人で	-9.80433
話は	-9.80478
いくらでも	-9.80478
立てた	-9.80525
脱	-9.8059
報	-9.80618
毒	-9.80631
標	-9.80646
眸	-9.80646
美くしい	-9.80647
距離	-9.80647
財産	-9.80649
尤も	-9.80673
寄って	-9.80674
はけっして	-9.80678
妻君	-9.8069
天井	-9.80716
見れば	-9.80719
一杯	-9.80724
這入った	-9.80776
互	-9.80815
に過ぎなかった	-9.8086
に陥	-9.80889
心は	-9.80892
津田に	-9.80915
おれが	-9.80978
きながら	-9.80991
変った	-9.81029
が出来る	-9.81109
頭の上	-9.81111
が来て	-9.81129
如く	-9.81129
があります	-9.81144
かす	-9.81261
を受け	-9.81309
と思ったら	-9.81314
考えていた	-9.81351
を出た	-9.81392
影を	-9.81396
と云えば	-9.81398
に取って	-9.81405
受ける	-9.81409
ないうちに	-9.81586
比	-9.81596
普通	-9.81607
股	-9.81619
蒲団	-9.81623
官	-9.81636
盾	-9.81636
餅	-9.81636
好奇心	-9.81637
資格	-9.81639
お父さん	-9.81639
適当	-9.81667
斯う	-9.8169
屋根	-9.81719
態度を	-9.81887
病人	-9.81888
続け	-9.81977
抜けて	-9.82032
以上に	-9.82087
でなければ	-9.82142
先刻から	-9.82149
云つた	-9.82153
するような	-9.82154
部分	-9.82189
途中で	-9.82259
ときに	-9.8232
かつた	-9.8238
へ出る	-9.82412
逢った	-9.82436
吾人	-9.82495
▁兄さんは	-9.82501
そうですか	-9.82509
話が	-9.82564
西洋人	-9.82578
のようなもの	-9.82613
育	-9.82626
仙	-9.82635
始末	-9.82648
男である	-9.82649
あらゆる	-9.82651
旨く	-9.82653
料理	-9.82654
坂井	-9.82657
▁何でも	-9.82751
思い切って	-9.8276
ったって	-9.82761
なくなって	-9.82802
たくなった	-9.82846
心得	-9.82869
穿	-9.82874
ものはない	-9.82884
格子	-9.8293
よそ	-9.8298
開いた	-9.82985
我々は	-9.8315
本人	-9.8315
分った	-9.83157
教えて	-9.83238
風が	-9.83287
父が	-9.83371
先生に	-9.83469
見ていた	-9.8347
十分	-9.8348
の事で	-9.83497
一々	-9.83512
平岡の	-9.83603
外国	-9.83607
屈	-9.83626
吉川	-9.83629
伏	-9.83632
一週間	-9.83646
浜	-9.83647
脚	-9.83647
御覧なさい	-9.83667
弁解	-9.83701
手で	-9.8371
に過ぎない	-9.83741
二三度	-9.83821
べて	-9.83912
方へ	-9.83938
忘れた	-9.83945
がないから	-9.83953
しまって	-9.84043
質問を	-9.84051
会話	-9.84072
以上の	-9.84288
そんなら	-9.84356
こう云った	-9.84407
かしら	-9.84487
旦那	-9.84505
の間から	-9.84511
よかった	-9.8453
声は	-9.84559
却	-9.84609
校長	-9.84612
言葉が	-9.8462
治	-9.84634
薄い	-9.8464
仕舞	-9.84645
速	-9.84657
奪	-9.84667
叱	-9.84667
u	-9.84667
羅	-9.84668
ケ	-9.84668
明瞭	-9.84669
講演	-9.84672
ような気がした	-9.84672
相当の	-9.84674
憐れ	-9.84689
遠慮なく	-9.84768
だと思った	-9.84819
のごとき	-9.84834
芸者	-9.84874
映る	-9.84896
持って来た	-9.84903
座敷へ	-9.84908
ことを	-9.84915
だれ	-9.84918
くない	-9.84978
吹く	-9.84979
致し	-9.85027
残る	-9.85092
信じ	-9.8511
暖	-9.8511
折々	-9.85136
さぞ	-9.85154
降りて	-9.85169
済んだ	-9.85214
悟	-9.85236
作家	-9.8528
頼んで	-9.8531
聴いて	-9.85394
崩れ	-9.85415
相手に	-9.85452
ような心持	-9.8554
と聞く	-9.85555
都	-9.85651
裸	-9.85666
鮮	-9.85675
抜いて	-9.85682
締め	-9.85685
芋	-9.85689
鋭	-9.85695
グ	-9.85697
篇	-9.85698
琴	-9.85698
だらけ	-9.85708
呼ぶ	-9.85717
沢山	-9.85734
変って	-9.85756
傾向	-9.85761
するのが	-9.85796
手段	-9.85882
十円	-9.859
た時	-9.85903
と言って	-9.85914
あとで	-9.85987
から出る	-9.85991
飲んで	-9.86114
話をする	-9.86123
明かに	-9.86182
清子	-9.86192
宜	-9.86233
泣き	-9.86258
吸	-9.86263
だけである	-9.86371
意味で	-9.86406
決	-9.86456
明らかに	-9.86518
合せて	-9.86611
サ	-9.86738
ぷ	-9.86739
札	-9.86739
舟	-9.8674
催促	-9.8674
退屈	-9.86756
自信	-9.86775
左右に	-9.86787
訳で	-9.86798
森本	-9.86799
会社	-9.86803
写真	-9.86815
便宜	-9.86815
御米の	-9.86934
分り	-9.86936
隅	-9.86942
身分	-9.86984
頭の中に	-9.87041
認めて	-9.87091
ということ	-9.87098
一方	-9.87106
よし子	-9.87175
民	-9.87235
はどう	-9.87289
悲し	-9.87397
帽子	-9.87483
始	-9.87501
堅	-9.87512
消えて	-9.87607
工	-9.87613
今日の	-9.87617
汚	-9.8763
付けた	-9.8764
眺める	-9.87688
拝	-9.87693
兄さんが	-9.87788
兵	-9.8779
塊	-9.87792
妾	-9.87792
A	-9.87792
ゴ	-9.87792
崖	-9.87793
滅多に	-9.87793
バ	-9.87794
頭を下げ	-9.87798
っきり	-9.87804
その他	-9.87818
安井	-9.87831
続いて	-9.8784
一層	-9.87913
松本	-9.87947
人も	-9.87963
あいだ	-9.88049
▁三千代は	-9.88067
訴え	-9.88144
生きている	-9.88184
するように	-9.88208
あれば	-9.88237
宿屋	-9.88237
ところは	-9.88269
ところに	-9.88302
云わない	-9.88346
一句	-9.88397
似ている	-9.88519
一人が	-9.88528
厚	-9.88577
舞	-9.88594
としては	-9.88718
しちゃ	-9.88722
敲	-9.88836
装	-9.88841
頂	-9.88855
児	-9.88856
汗	-9.88857
尋常	-9.88863
一時間	-9.88865
訪問	-9.88867
比田	-9.88874
工夫	-9.88892
気に入	-9.88913
と違って	-9.88942
兄は	-9.88971
せい	-9.88994
左様	-9.89017
関係を	-9.89077
色が	-9.89103
三四郎の	-9.89182
大きく	-9.89226
するために	-9.89259
のかと	-9.8931
話をした	-9.89376
作り	-9.89386
驚か	-9.89457
微	-9.89474
気楽	-9.89483
ばかりだ	-9.89519
答へ	-9.89574
を聞いた	-9.89592
手の	-9.89765
左へ	-9.89799
苦笑	-9.89818
となると	-9.8989
成立	-9.89907
誠	-9.89912
見よう	-9.89914
▁此	-9.8992
永	-9.89924
華	-9.89929
猛	-9.8993
堀	-9.89931
袂	-9.89931
H	-9.89932
いっぱい	-9.89933
幾分か	-9.89933
おとなしく	-9.89933
真直に	-9.8994
誤解	-9.89946
並べて	-9.89963
頭は	-9.89963
の好い	-9.90031
丸い	-9.9011
▁甲野さんは	-9.90114
十八	-9.9012
例のごとく	-9.90121
態度で	-9.90157
ができる	-9.9018
致	-9.9028
書物を	-9.90313
取れ	-9.90361
どこかに	-9.90427
延	-9.90469
勝手に	-9.90553
なければならぬ	-9.90582
眼は	-9.90601
最後の	-9.90623
どん	-9.90639
の色が	-9.90676
どれ	-9.90745
描いて	-9.9075
米	-9.90811
宵	-9.90841
兄と	-9.90899
西洋の	-9.90937
冊	-9.91016
絹	-9.91018
規則	-9.91019
努力	-9.91019
おおかた	-9.91019
温泉	-9.9102
になっていた	-9.91075
なおさら	-9.91076
くと	-9.91079
くらいに	-9.91097
わし	-9.91106
眼鏡	-9.91109
入れる	-9.91126
立てる	-9.91132
梅子	-9.91139
いずれ	-9.91148
四方	-9.91207
と思うと	-9.91268
ようにして	-9.91269
余地	-9.91292
やあ	-9.9133
取る	-9.91453
寝る	-9.91455
一種	-9.91458
黒く	-9.91507
笑って	-9.91508
を読んで	-9.91594
なければならん	-9.91684
道也	-9.91724
聞いている	-9.91876
りして	-9.91883
てて	-9.91887
暗に	-9.91888
纏め	-9.91889
申す	-9.91892
郎	-9.91965
が一番	-9.91969
は必ず	-9.9199
擦	-9.91999
国家	-9.92007
因	-9.92068
かねて	-9.9209
煩	-9.92115
雪	-9.92117
紳士	-9.92118
失敬	-9.92127
裏に	-9.92143
しだいに	-9.92144
どのくらい	-9.92147
依頼	-9.92154
親類	-9.92175
解らなかった	-9.92192
したのである	-9.92248
ようである	-9.92256
自然と	-9.92289
んですが	-9.92319
だとか	-9.92321
どういう	-9.9234
しばらくして	-9.92403
平生の	-9.92429
を向いて	-9.92477
働き	-9.92507
し始めた	-9.92521
できるだけ	-9.92524
三四	-9.92527
十九	-9.92573
思い出した	-9.92587
事を云う	-9.92598
の上から	-9.92691
したのは	-9.92752
ものであります	-9.92793
▁ところへ	-9.92982
その頃	-9.92983
描	-9.93012
挙	-9.93037
言葉で	-9.93039
るから	-9.93061
供	-9.93142
密	-9.93226
に於て	-9.93228
やむをえず	-9.93229
廃	-9.93229
ブ	-9.93229
寂	-9.93229
殆んど	-9.93229
亭主	-9.93231
賛成	-9.93233
ございます	-9.93245
髪を	-9.93262
御米は	-9.93263
二三日	-9.93283
って来る	-9.93284
云ひ	-9.93291
倒	-9.93302
お延に	-9.93306
あげ	-9.93344
そっと	-9.93344
▁最後に	-9.93367
も何も	-9.93402
もんだから	-9.93408
惜しい	-9.9346
事もない	-9.93499
事があった	-9.93504
多くの	-9.93518
わたし	-9.93555
ばかりの	-9.93583
手際	-9.93619
らざる	-9.93675
一点	-9.9371
認	-9.93753
答える	-9.93802
ましょうか	-9.93822
真面目な	-9.93838
なのです	-9.93869
り出した	-9.93897
置き	-9.93925
わなかった	-9.93925
ござ	-9.93947
の事だ	-9.93962
初め	-9.94001
これでも	-9.94029
あの人	-9.94039
恐ろし	-9.94047
落ちる	-9.94052
子は	-9.94068
可愛	-9.94077
熱心	-9.94103
くれない	-9.94156
というものは	-9.94252
量	-9.94286
たかった	-9.94312
澄	-9.94318
乙	-9.94343
巧	-9.94349
ュ	-9.94351
熟	-9.94351
銅	-9.94352
遂	-9.94352
鎖	-9.94352
肌	-9.94352
習慣	-9.94352
卸	-9.94353
到底	-9.94355
境遇	-9.94357
載せて	-9.94364
昨夜	-9.94364
種類	-9.94376
んでいた	-9.94382
道具	-9.94386
注文	-9.94396
何物	-9.94426
次に	-9.94448
自白	-9.94461
行為	-9.94471
自分達	-9.94474
時間を	-9.94562
向こう	-9.94656
暑い	-9.94761
してくれる	-9.94776
その晩	-9.9481
▁この時	-9.94842
一般の	-9.94891
大切	-9.94908
臭	-9.94912
思え	-9.94935
顔の	-9.94982
▁自分も	-9.95071
当時の	-9.95132
友人	-9.95245
んだか	-9.95257
三千代の	-9.95308
▁男は	-9.9531
駄	-9.95318
敬太郎の	-9.95319
となる	-9.95347
に引き	-9.9541
かろう	-9.95412
柔	-9.95479
館	-9.95488
凄	-9.95488
髭	-9.95488
粉	-9.95488
d	-9.95489
合わせ	-9.95492
冷淡	-9.95501
まさか	-9.95571
▁あるいは	-9.95601
避け	-9.95609
食わ	-9.9563
分らなかった	-9.95656
は固より	-9.95741
ようとした	-9.95752
主張	-9.95818
抜ける	-9.96014
ずっと	-9.96019
臭い	-9.96069
慰	-9.96088
前から	-9.96128
るんです	-9.96147
一体	-9.9618
読んだ	-9.96191
までも	-9.96275
の名を	-9.96296
いながら	-9.9631
の傍に	-9.96351
虚	-9.96386
腹が	-9.96388
使い	-9.96456
その人の	-9.96464
母に	-9.96541
かと思って	-9.96587
適	-9.96603
裁	-9.96607
棚	-9.96623
属	-9.96625
商	-9.96626
純	-9.96629
貫	-9.96636
ボ	-9.96638
拾	-9.96638
躇	-9.96638
宛	-9.96638
珠	-9.96638
誇	-9.96638
称	-9.96639
衆	-9.96639
胆	-9.9664
にやにや	-9.9664
和尚	-9.96645
市蔵	-9.9665
困難	-9.96665
平生から	-9.96668
の真中に	-9.96679
って行く	-9.96731
進行	-9.96739
どこに	-9.96798
差支ない	-9.96816
互に	-9.96817
だろうと思う	-9.96817
二人の間に	-9.9684
見物	-9.96967
やす	-9.96993
▁奥さんは	-9.97044
こんな事を	-9.97062
二人とも	-9.97063
自分には	-9.97065
彼らは	-9.97067
続き	-9.97121
合わない	-9.97134
暗く	-9.97182
知った	-9.972
何故	-9.97201
に入る	-9.97265
気がついて	-9.9733
を持ち	-9.97402
起きて	-9.97404
なるもの	-9.97446
分別	-9.97467
なものだ	-9.9748
られなかった	-9.97484
たった一人	-9.97511
彼女が	-9.97571
と思ふ	-9.97578
男であった	-9.97599
四つ	-9.97689
十四	-9.97709
経過	-9.97717
据	-9.97752
闇	-9.97789
令嬢	-9.978
にもかかわらず	-9.978
御馳走	-9.97801
乱暴	-9.97804
永久	-9.97806
いたずら	-9.97811
食卓	-9.97814
呼ば	-9.97836
を相手に	-9.97837
文鳥	-9.97853
御前の	-9.97858
が見える	-9.97861
っぽ	-9.97892
以後	-9.97898
飲んだ	-9.97919
当り前	-9.97942
遊びに	-9.9796
を眺めて	-9.98011
向けて	-9.98015
次第に	-9.98036
勢い	-9.9804
室に	-9.98044
から云えば	-9.9806
してくれた	-9.98108
▁要するに	-9.98129
見ろ	-9.98138
車夫	-9.98144
立た	-9.98225
本来	-9.98229
心理	-9.98252
ねば	-9.98271
開けて	-9.98316
聞いていた	-9.98324
赤く	-9.98354
足の	-9.9837
女を	-9.98422
旨	-9.9844
英国	-9.98495
幸	-9.9853
がった	-9.98535
事もある	-9.98545
宗助の	-9.98577
ぢや	-9.98781
▁そこへ	-9.9881
ものです	-9.98828
くなつた	-9.98845
▁......	-9.98845
りゃ	-9.98857
試	-9.9889
激	-9.98971
紋	-9.98977
メ	-9.98977
炭	-9.98977
噛	-9.98977
尊敬	-9.9898
を以て	-9.98985
と思つた	-9.9899
徳義	-9.98992
仕切	-9.98996
参考	-9.98997
ペン	-9.99
重ねて	-9.99002
思想	-9.99006
不幸	-9.99008
息を	-9.99043
頼む	-9.99044
凡て	-9.99082
このくらい	-9.99092
立場	-9.99106
感ずる	-9.99251
るだろう	-9.99275
他に	-9.99338
不足	-9.9937
行つた	-9.99373
借	-9.99558
方法	-9.99576
掻	-9.99579
来てくれ	-9.99618
張った	-9.9963
していると	-9.99631
▁次に	-9.99639
路を	-9.99693
詩人	-9.99711
来い	-9.99716
違い	-9.99721
作った	-9.99789
あとから	-9.99804
降	-9.99809
だけれども	-9.99817
動かない	-9.99824
の影が	-9.99839
▁これで	-9.99891
梅	-9.99929
なれば	-9.99936
ようだが	-9.99939
だろうと思って	-9.99989
身体を	-10
執	-10.0002
散ら	-10.0002
載	-10.0014
捨	-10.0016
なかったのです	-10.0016
型	-10.0016
桜	-10.0017
溜	-10.0017
裾	-10.0017
蓋	-10.0017
紀	-10.0017
ありがとう	-10.0017
緑	-10.0017
贅沢	-10.0017
いけません	-10.0017
教授	-10.0017
知らせ	-10.0018
談判	-10.0019
位置	-10.0023
スト	-10.0025
せんだって	-10.0026
この男	-10.0028
▁元来	-10.0029
いかなる	-10.003
笑い出した	-10.0032
吾々	-10.0039
▁のみならず	-10.004
個	-10.0042
肝心の	-10.0043
を買って	-10.0045
に近い	-10.0045
日本人	-10.0051
になつて	-10.0058
いえば	-10.006
であるが	-10.0062
手数	-10.0064
であって	-10.007
煙草を	-10.0074
か何か	-10.0077
一年	-10.0079
野だ	-10.01
らずに	-10.01
ぶり	-10.0102
出てくる	-10.0106
構え	-10.0108
枚	-10.0109
近頃は	-10.0118
時間が	-10.0119
哲学	-10.0122
出入	-10.0126
ものだろう	-10.0129
坑	-10.0131
象	-10.0135
功	-10.0135
承	-10.0135
議	-10.0136
務	-10.0136
仮	-10.0136
腐	-10.0137
撃	-10.0137
頸	-10.0137
巡査	-10.0137
いきなり	-10.0138
与次郎が	-10.0138
光景	-10.0139
据えて	-10.014
風呂場	-10.0141
こりゃ	-10.0143
▁現に	-10.0144
居た	-10.0144
思ひ	-10.0153
我々の	-10.0163
でせう	-10.0165
を入れて	-10.0175
されている	-10.0176
瞬間	-10.0179
事ができた	-10.018
払って	-10.018
帽子を	-10.0188
持って来て	-10.0191
一間	-10.0192
過去の	-10.0192
▁こういう	-10.02
心持がした	-10.0203
▁こう云う	-10.0205
木の	-10.0206
を使って	-10.022
如	-10.022
中学	-10.0226
気の毒だ	-10.0242
仰向	-10.0244
聞える	-10.0244
▁ある時	-10.0257
元気	-10.0258
プ	-10.0259
塵	-10.0259
探偵	-10.0259
ぴたりと	-10.0259
ノ	-10.0259
烏	-10.0259
省	-10.0259
ズ	-10.0259
の角	-10.0264
に堪え	-10.0264
ますから	-10.027
挙げ	-10.0272
呼んだ	-10.0274
いまだに	-10.0274
と同	-10.0275
は依然として	-10.0283
苦しく	-10.0291
ぶら	-10.0294
どこかへ	-10.0295
安さん	-10.0304
直して	-10.0307
意外	-10.0314
というような	-10.0321
文学者	-10.0323
見つめ	-10.0328
づいた	-10.0329
んだい	-10.0336
少ない	-10.0336
動いた	-10.0341
の云う事	-10.0342
はすでに	-10.0344
細君に	-10.0358
あんなに	-10.0364
懸けて	-10.0366
知る	-10.0375
旅	-10.0377
講	-10.0381
歳	-10.0381
囲	-10.0382
球	-10.0383
『	-10.0383
』	-10.0383
料簡	-10.0383
弊	-10.0383
曇	-10.0383
版	-10.0383
欺	-10.0383
肥	-10.0383
大阪	-10.0383
飲む	-10.0386
つと	-10.0386
仕舞つた	-10.0388
説明した	-10.0389
遠くから	-10.0392
のでしょう	-10.0392
何遍	-10.0393
見えなかった	-10.04
が多い	-10.0403
を得た	-10.041
ように見えた	-10.0413
済まない	-10.0414
つら	-10.0415
やすい	-10.0416
光る	-10.0416
相応	-10.0419
足りない	-10.0422
違った	-10.0425
棄て	-10.0425
英	-10.0431
という気	-10.0433
聞かれ	-10.0435
を感じた	-10.0438
気持	-10.0442
面白く	-10.0448
を受ける	-10.0462
あいつ	-10.0468
人から	-10.0474
聞こえ	-10.0475
かって	-10.0476
御前は	-10.0483
訳だ	-10.0485
迎え	-10.0493
いったん	-10.0498
が出た	-10.0504
事ができ	-10.0505
争	-10.0507
魔	-10.0507
菊	-10.0508
乾	-10.0508
怠	-10.0508
叫	-10.0508
算	-10.0508
洋杖	-10.0508
締	-10.0509
公平	-10.0517
丈夫	-10.0517
出ている	-10.0528
下り	-10.0531
見舞	-10.0533
既に	-10.0533
全然	-10.0539
と思われる	-10.0542
彼の眼	-10.0546
るために	-10.0547
幸い	-10.0548
結構	-10.0549
廻る	-10.0551
▁彼女の	-10.0559
知ら	-10.056
場合には	-10.0561
も構わない	-10.0562
打って	-10.0567
不思議に	-10.0572
はほとんど	-10.0577
遥	-10.0578
調子を	-10.0602
▁先生の	-10.0604
人だ	-10.0605
池	-10.0612
黙っている	-10.0614
眼で	-10.0614
足が	-10.0617
未来の	-10.0617
帽	-10.0619
繰り返して	-10.062
帰りに	-10.0627
忍	-10.0632
責	-10.0633
源	-10.0634
ヴァイオリン	-10.0634
俥	-10.0634
慾	-10.0634
効	-10.0634
セ	-10.0634
条件	-10.0635
法則	-10.0636
問答	-10.064
の根	-10.0641
一致	-10.0641
屋敷	-10.0642
えない	-10.0644
二日	-10.0646
若い女	-10.065
たくない	-10.0652
不都合	-10.0656
腹の中	-10.0658
注意を	-10.0658
ことは	-10.0666
残っている	-10.0668
着いて	-10.0672
偉い	-10.0677
の歴史	-10.068
三年	-10.0681
側に	-10.0683
両人	-10.0688
を読む	-10.0697
容易	-10.0698
らせる	-10.07
覚えてい	-10.0716
する気	-10.0723
▁僕の	-10.0724
むる	-10.0731
べからざる	-10.0734
給	-10.075
そんなもの	-10.0751
してしまう	-10.076
ベ	-10.076
壊	-10.0761
非常な	-10.0762
剥	-10.0762
豊	-10.0762
滴	-10.0763
なすった	-10.0773
を眺めていた	-10.0774
と云うものは	-10.0779
も同じ	-10.0781
を抱いて	-10.0785
告	-10.0788
一応	-10.0789
実行	-10.0792
の音が	-10.0793
最	-10.0793
食事	-10.0795
解決	-10.0797
と答えて	-10.0803
愛想	-10.0805
下す	-10.0811
の方では	-10.0818
と思つて	-10.0819
▁彼が	-10.0821
もしなかった	-10.0836
御出	-10.0846
見えて	-10.0847
たくなる	-10.0847
あとは	-10.0861
出された	-10.0862
しましょう	-10.0863
を探	-10.0865
下りた	-10.0866
繰り返した	-10.0871
金は	-10.0874
御客	-10.0882
御話	-10.0882
納	-10.089
彼と	-10.089
尊	-10.0892
痕	-10.0892
傷	-10.0892
朧	-10.0892
氏	-10.0892
倚	-10.0892
挨拶をした	-10.0892
胴	-10.0892
ともかくも	-10.0892
原稿	-10.0893
順序	-10.0893
刺激	-10.0893
元来	-10.0893
跳ね	-10.0895
拵えて	-10.0895
大変な	-10.0896
是公	-10.0896
月給	-10.0897
悉く	-10.0897
最後に	-10.0905
心得て	-10.0906
に似た	-10.0907
端書	-10.0907
の奥に	-10.0907
の裏に	-10.0914
は大変	-10.0914
用意	-10.0915
席に	-10.0921
きまって	-10.0925
一軒	-10.0934
人のように	-10.0937
その代り	-10.0947
が違う	-10.0948
死に	-10.0951
不意に	-10.0957
染め	-10.0958
然たる	-10.0968
そのくらい	-10.0968
かと思った	-10.0972
な顔をして	-10.0973
ないんだから	-10.0976
に至っては	-10.0977
狭	-10.0987
たび	-10.0988
まで来て	-10.0989
に出た	-10.0996
と云っても	-10.0999
暮れ	-10.1009
たまえ	-10.1012
聞え	-10.1022
緩	-10.1023
只	-10.1024
ピ	-10.1024
腹を	-10.1025
拍子	-10.1026
利害	-10.1027
拵えた	-10.1029
を引いて	-10.1033
論文	-10.1033
頼んだ	-10.1034
足袋	-10.1035
夫人の	-10.1035
を与える	-10.1037
▁与次郎は	-10.104
事にした	-10.1045
有様	-10.1049
いいか	-10.1052
一尺	-10.1053
押して	-10.1056
或る	-10.1056
こう云って	-10.1069
去った	-10.1077
いられない	-10.108
電	-10.1084
抛	-10.1091
雨が	-10.1091
寝て	-10.1093
げる	-10.1098
彼女を	-10.1104
なんでしょう	-10.1106
超	-10.1113
校	-10.1116
わずか	-10.1116
思われた	-10.1117
奇麗な	-10.112
のだという	-10.1122
着く	-10.1122
嫂の	-10.1127
▁何だか	-10.1131
それも	-10.1142
覚えている	-10.1143
ついている	-10.1153
益	-10.1155
険	-10.1156
恨	-10.1157
刈	-10.1157
革	-10.1157
疎	-10.1157
よろしい	-10.1157
ミ	-10.1157
!	-10.1157
濃	-10.1158
視線	-10.1159
を呼んで	-10.1161
便利	-10.1161
兄弟	-10.1161
至極	-10.1162
百円	-10.1165
論理	-10.1167
見えぬ	-10.1167
も好い	-10.1169
頭の中	-10.1171
実を云うと	-10.1172
云わなかった	-10.1174
いっそ	-10.1176
頼み	-10.1178
言語	-10.1178
描いた	-10.1178
リー	-10.1179
離れて	-10.1181
去年	-10.1186
まない	-10.119
引く	-10.1194
わぬ	-10.1195
と思っている	-10.1197
の下から	-10.1197
何らの	-10.12
いるから	-10.1203
垂れ	-10.1203
変る	-10.121
張る	-10.1212
動物	-10.1214
遊んで	-10.1214
窓から	-10.1218
中から	-10.1218
肩を	-10.1219
糸子	-10.1223
しているうちに	-10.1225
吐	-10.1231
何だい	-10.1231
揚	-10.1244
向けた	-10.1266
徒	-10.1271
階	-10.1272
の傍へ	-10.1277
そこを	-10.1281
んとする	-10.1286
区	-10.1289
鼓	-10.1292
製	-10.1292
序	-10.1292
胡	-10.1292
たんびに	-10.1292
ちょうだい	-10.1292
繋	-10.1292
モ	-10.1292
煩悶	-10.1293
原口さん	-10.1293
要求	-10.1293
のごとくに	-10.1293
苦労	-10.1294
絶えず	-10.1295
過去を	-10.1298
敷居	-10.1299
ット	-10.1299
もう一遍	-10.1302
冷たい	-10.1304
眺めていた	-10.1305
机の上に	-10.131
哲学者	-10.131
易え	-10.1312
驚	-10.1314
濃い	-10.1321
れなかった	-10.1321
休み	-10.1324
どこまで	-10.1332
東風君	-10.1333
問題に	-10.1336
坐っていた	-10.1337
より外に	-10.1341
としか	-10.1342
以	-10.1347
宗助が	-10.1355
申した	-10.1356
どこで	-10.1361
どこにも	-10.1365
詰め	-10.1372
切る	-10.1377
右へ	-10.1386
光を	-10.1386
問い	-10.139
でも何でも	-10.14
は皆	-10.1406
大方	-10.1408
ようなものの	-10.1416
高等学校	-10.1416
宗	-10.1426
料	-10.1427
烟	-10.1429
浸	-10.1429
徹	-10.1429
旗	-10.1429
祖	-10.1429
を帯びて	-10.1429
以外の	-10.143
どてら	-10.143
明るい	-10.143
商売	-10.1431
ほぼ	-10.1437
を挙げて	-10.1439
留ま	-10.1444
すまない	-10.1446
ればいい	-10.1446
来なかった	-10.1451
昔から	-10.1461
やれ	-10.1469
何処	-10.1475
響いた	-10.1476
自然に	-10.1476
何で	-10.1478
してある	-10.148
用心	-10.148
に入って	-10.1483
室へ	-10.1483
だぜ	-10.1484
天地	-10.1497
事のない	-10.1519
様子が	-10.1521
六畳	-10.1522
空に	-10.1524
断った	-10.153
吾輩は	-10.1533
なんだろう	-10.1536
父と	-10.1538
いつまで	-10.1538
の力で	-10.1541
なって来た	-10.1552
椽	-10.1562
輩	-10.1564
招	-10.1567
級	-10.1568
倉	-10.1568
桶	-10.1568
孔	-10.1568
忌	-10.1568
彫	-10.1568
防	-10.1568
ございません	-10.1568
墨	-10.1568
競争	-10.1568
技巧	-10.1569
予想	-10.1569
平凡	-10.157
出ない	-10.157
仕合せ	-10.1574
述べ	-10.1577
所有	-10.1578
するほど	-10.1579
出来事	-10.1579
これらの	-10.1581
進む	-10.1582
わね	-10.1585
近寄	-10.1587
移る	-10.1591
飲み	-10.1593
池の	-10.1593
ますか	-10.1604
聞こえた	-10.1605
奥さんは	-10.1608
であるか	-10.1608
へ出ると	-10.1609
奇麗に	-10.1618
午後	-10.1619
事ができる	-10.1625
野々宮君	-10.1628
見詰め	-10.1632
際に	-10.1636
位地	-10.1638
おった	-10.1639
ってしまった	-10.1642
風を	-10.1645
三分	-10.1649
説明して	-10.1649
上がった	-10.1653
兄さんに	-10.1659
家で	-10.166
尋ねた	-10.1663
働か	-10.1676
を有って	-10.168
相手が	-10.1682
二本	-10.1682
乗る	-10.1685
二人が	-10.1686
重吉	-10.1696
間際	-10.1697
綺麗	-10.17
大丈夫だ	-10.1703
出立	-10.1705
燈	-10.1708
像	-10.1708
蒙	-10.1709
霊	-10.1709
標準	-10.1709
栄	-10.1709
汁	-10.1709
ヤ	-10.1709
少なくとも	-10.1709
倫敦	-10.1709
大事に	-10.171
赤毛布	-10.171
原因	-10.1711
やしません	-10.1711
調和	-10.1712
及び	-10.1715
結構だ	-10.1719
そのうち	-10.1723
強いて	-10.1726
姿勢	-10.1731
利用	-10.1732
心得ている	-10.1734
▁嫂は	-10.1742
抜けた	-10.1748
悪口	-10.1749
分りません	-10.1758
ますよ	-10.1767
だろうと思います	-10.1768
父母	-10.1769
は決して	-10.1772
開く	-10.1778
越す	-10.1784
だと云って	-10.1787
説明する	-10.1788
あれで	-10.1789
描き	-10.1793
こっちから	-10.1803
御常	-10.1806
慣れ	-10.1812
りたい	-10.1817
と云ったら	-10.182
四五	-10.1823
▁無論	-10.1823
善い	-10.1824
その人	-10.1829
労	-10.1836
晴	-10.184
述	-10.1847
志	-10.1847
勘	-10.1851
音がする	-10.1851
豆腐屋	-10.1852
卑	-10.1852
殿	-10.1852
ガ	-10.1852
疾	-10.1852
ぐるぐる	-10.1852
残酷	-10.1853
舞台	-10.1854
大きい	-10.1856
現に	-10.1857
細長い	-10.186
観念	-10.1862
出て行った	-10.1865
黄色	-10.1866
世界に	-10.1877
厭だ	-10.1879
もあり	-10.1883
走る	-10.1889
顧み	-10.1891
例の通り	-10.1893
近所	-10.1893
きまり	-10.1895
に当る	-10.1896
を求め	-10.19
事ができなかった	-10.1904
▁私も	-10.1904
と云う意味	-10.1905
ような事を	-10.1911
れていた	-10.1912
悟った	-10.1914
不断	-10.192
と思えば	-10.1928
住んで	-10.1933
如何に	-10.1935
ばかりじゃない	-10.1936
あえて	-10.194
善く	-10.1941
洋服	-10.1947
あるものは	-10.1953
ぱ	-10.1955
相手は	-10.1978
当り	-10.1979
ふん	-10.198
概	-10.1988
依	-10.1991
を着た	-10.1991
叩	-10.1996
縞	-10.1997
丁寧に	-10.1997
召	-10.1997
呼吸	-10.1997
自慢	-10.1998
家族	-10.2
即ち	-10.2001
澄まして	-10.2001
光線	-10.2002
好かろう	-10.2002
いくつ	-10.2004
を打つ	-10.2007
弱点	-10.2009
を与えた	-10.2012
向うから	-10.2013
日記	-10.2015
ぐる	-10.2035
さずに	-10.2035
たまらない	-10.2035
事のできない	-10.2036
鼻の先	-10.2039
していない	-10.2047
見えます	-10.2056
へ乗	-10.2062
貰い	-10.2069
掻き	-10.2069
注意した	-10.2074
婆	-10.2091
上へ	-10.2096
自から	-10.2097
穿いて	-10.2109
出掛け	-10.2112
を開けて	-10.2118
かも知れませんが	-10.2118
連れ	-10.2121
団	-10.2124
べた	-10.2129
んじゃ	-10.2131
証	-10.214
由	-10.214
担	-10.214
五円	-10.2141
佐	-10.2142
杖	-10.2143
氷	-10.2144
ワ	-10.2144
掌	-10.2144
譲	-10.2144
豚	-10.2144
霜	-10.2144
m	-10.2144
ソ	-10.2144
交渉	-10.2144
er	-10.2146
現われた	-10.2147
落ちつき	-10.2149
買った	-10.215
の多い	-10.2152
主意	-10.2154
になれば	-10.216
了見	-10.216
来たら	-10.2162
を思い出した	-10.2167
の方でも	-10.2169
と同じように	-10.217
せずに	-10.217
翌日	-10.2173
意地	-10.2174
自由に	-10.2174
神さん	-10.2176
建て	-10.2188
はたしかに	-10.2193
訳がない	-10.2193
揚げ	-10.2196
掛ける	-10.2198
被って	-10.2198
行つて	-10.2199
から云うと	-10.2202
聞えた	-10.2206
迷亭君	-10.2213
人々	-10.2216
ほう	-10.2217
のかね	-10.2227
建	-10.2227
差支え	-10.2236
認める	-10.2237
最初から	-10.2252
遍	-10.2257
国へ	-10.2263
書斎に	-10.2274
沢	-10.2275
帳	-10.2278
彩	-10.2287
睡	-10.2293
猶	-10.2293
塀	-10.2293
壮	-10.2293
膨	-10.2293
猿	-10.2293
蕎麦	-10.2293
もちろん	-10.2293
剃	-10.2293
晴れ	-10.2294
失敗	-10.2294
弁護	-10.2295
報知	-10.2296
無頓着	-10.2298
石段	-10.2304
せられる	-10.2307
内で	-10.2307
拝見	-10.2307
▁平岡は	-10.2308
かれて	-10.2311
まことに	-10.2312
客観的	-10.2312
御気の毒	-10.2315
とんと	-10.2327
々たる	-10.2335
景気	-10.2338
思い出す	-10.2339
くらいである	-10.2343
尋ねて	-10.2345
いられる	-10.2349
以前	-10.2351
直す	-10.2354
空間	-10.2356
応え	-10.2366
わずに	-10.237
聞いて見た	-10.2373
びた	-10.2379
室の中	-10.2389
乱れ	-10.2399
立たない	-10.2403
になれ	-10.2405
読ま	-10.2412
未	-10.2421
合い	-10.2425
止め	-10.2425
怪し	-10.2427
あの時	-10.2428
自分だけ	-10.2436
どこかで	-10.2438
いいでしょう	-10.244
卒	-10.2444
臨	-10.2445
雄	-10.2445
謡	-10.2445
検	-10.2445
健康	-10.2445
涼	-10.2445
g	-10.2445
狸	-10.2445
ィ	-10.2445
奉	-10.2445
おそらく	-10.2445
驚ろいて	-10.2445
いらしった	-10.2445
電報	-10.2445
調戯	-10.2446
我輩	-10.2448
独立	-10.245
意義	-10.2453
惜し	-10.2454
顔つき	-10.2457
感覚	-10.2457
なくても	-10.2457
活力	-10.2459
五年	-10.2467
に関する	-10.2471
そこが	-10.2473
虚子	-10.2478
▁お秀は	-10.248
上等	-10.2488
あけて	-10.2489
前へ出	-10.2495
でないと	-10.2503
なければなりません	-10.2505
うまい	-10.2513
本位	-10.2517
のなかで	-10.2521
諸	-10.2531
▁其時	-10.2535
景	-10.2536
相手を	-10.2539
ように見える	-10.2541
▁今の	-10.2541
はいって	-10.2544
偉	-10.2545
触	-10.2552
一向	-10.2561
頭から	-10.2565
発見	-10.2567
模	-10.2593
察	-10.2596
訪	-10.2597
武	-10.2598
之	-10.2598
匹	-10.2598
翳	-10.2599
昧	-10.2599
孤	-10.2599
鐘	-10.2599
郵便	-10.2599
祝	-10.2599
取り扱	-10.2599
取扱	-10.26
給仕	-10.2601
に至るまで	-10.2607
あらわれた	-10.2607
レー	-10.2608
拵え	-10.2616
後へ	-10.2616
寄り	-10.2623
音楽	-10.2624
と思っていた	-10.2631
ものですから	-10.2631
兄に	-10.2632
▁下女は	-10.2633
電気	-10.2635
下した	-10.2637
凝	-10.2651
しようがない	-10.2652
がわるい	-10.2654
逆上	-10.2664
を通して	-10.2668
さほど	-10.267
枯	-10.2672
勤	-10.2677
乗った	-10.2684
てしまう	-10.2685
宗近	-10.2688
るとき	-10.2703
大きな声	-10.2704
なんですか	-10.2714
荷	-10.2716
婆さんは	-10.2719
参り	-10.2725
件	-10.2733
はっと	-10.274
出そう	-10.2741
低	-10.2749
直した	-10.2751
事になる	-10.2752
専	-10.2753
緒	-10.2753
抗	-10.2753
園	-10.2753
呑気	-10.2754
恩	-10.2755
縄	-10.2755
隊	-10.2755
斜めに	-10.2755
途端に	-10.2755
太郎	-10.2755
忠告	-10.2755
中野君	-10.2755
羨まし	-10.2756
無言のまま	-10.2756
経済	-10.2757
利益	-10.2757
厄介	-10.2758
と云う事を	-10.2758
割り	-10.2758
後悔	-10.2758
大きな声を出して	-10.2759
大将	-10.2761
理解	-10.2771
不快	-10.2772
そこまで	-10.2773
三重吉	-10.2775
能力	-10.2778
ではあるが	-10.2779
わかる	-10.2781
心のうちで	-10.2784
学校へ	-10.2785
なあに	-10.2786
▁それも	-10.2792
やむ	-10.2804
根本	-10.2809
無言	-10.2811
さき	-10.2812
ように思われた	-10.282
の顔を見る	-10.2821
蒼い	-10.2824
ありゃ	-10.2832
となった	-10.2834
申します	-10.2844
聴き	-10.2845
弱い	-10.2852
泣	-10.2853
買い	-10.2857
君も	-10.2859
顧	-10.2861
ありがた	-10.2885
単純な	-10.2886
越した	-10.2888
▁翌日	-10.2889
彼の頭	-10.2892
読め	-10.2892
帰って来て	-10.2896
怪	-10.2897
疑い	-10.2904
があれば	-10.2904
言って	-10.2906
吹いて	-10.2908
謎	-10.291
淡	-10.2911
州	-10.2913
倫理	-10.2913
柿	-10.2913
救	-10.2913
硬	-10.2913
藪	-10.2913
苛	-10.2914
営	-10.2914
瘠	-10.2914
選	-10.2914
砕	-10.2914
名誉	-10.2915
非難	-10.2916
に違なかった	-10.2916
に従って	-10.2918
応用	-10.2921
急いで	-10.2922
渡る	-10.2924
綺麗に	-10.2924
さらに	-10.2924
出来上った	-10.2925
一面	-10.2926
どうかして	-10.2927
突っ	-10.293
色に	-10.2936
宅に	-10.2941
通った	-10.2957
云は	-10.2958
出なかった	-10.2961
間もなく	-10.2964
抜いた	-10.2965
わるい	-10.2968
ように思われる	-10.2968
映った	-10.2969
物語	-10.2969
御蔭で	-10.2972
だつて	-10.2974
軽い	-10.2975
奴だ	-10.2981
呼んで	-10.2988
らなければならない	-10.3002
共に	-10.3014
事業	-10.3021
突いて	-10.3025
待っている	-10.3031
これに	-10.3042
消えた	-10.3043
めいた	-10.3053
隠れ	-10.3053
起って	-10.3055
層	-10.3056
倒れ	-10.306
この女	-10.3062
つけられ	-10.3064
しつつ	-10.3073
改め	-10.3074
練	-10.3074
委	-10.3075
卑怯	-10.3075
排	-10.3075
あいにく	-10.3075
濁	-10.3075
雅	-10.3075
ゆっくり	-10.3075
埃	-10.3075
ぺ	-10.3075
ネ	-10.3075
憂	-10.3075
罵	-10.3075
御嬢さん	-10.3075
掃除	-10.3075
圧迫	-10.3075
団扇	-10.3075
つづけ	-10.3076
保証	-10.3076
感謝	-10.3077
うまく	-10.3078
本郷	-10.3079
られていた	-10.308
小野	-10.3083
大概	-10.3085
められた	-10.3085
おれも	-10.3087
駆	-10.3088
だけあって	-10.3089
労力	-10.309
下りる	-10.309
まらない	-10.3093
顔色	-10.3094
植	-10.3099
重き	-10.31
行動	-10.3102
正月	-10.3108
心細い	-10.3112
余も	-10.3115
明らか	-10.3116
働く	-10.3118
致します	-10.3119
御承知	-10.3123
ですわ	-10.3132
んだからね	-10.3133
暖か	-10.3135
陽	-10.3138
へ這入って	-10.3138
だけでも	-10.3145
自分より	-10.3148
学士	-10.3164
から見れば	-10.3168
呑気な	-10.3176
されていた	-10.3178
どうだい	-10.3179
甲野	-10.3184
事ばかり	-10.3188
親子	-10.3188
してやる	-10.3191
二年	-10.3195
越して	-10.3199
此方	-10.3202
だったので	-10.3204
落す	-10.3212
なかに	-10.3213
嫂さん	-10.3217
一所に	-10.3217
降りた	-10.3218
余に	-10.3219
を並べて	-10.3221
識	-10.3223
林	-10.3234
驚ろか	-10.3235
砲	-10.3238
震	-10.3239
y	-10.3239
屑	-10.3239
虎	-10.3239
群	-10.3239
降参	-10.324
草履	-10.324
▁従って	-10.3241
浴衣	-10.3241
局部	-10.3241
面目	-10.3243
住居	-10.3243
出来ぬ	-10.3244
苦い	-10.325
一遍	-10.3252
住み	-10.3254
忙がしい	-10.3255
解る	-10.326
と主人が	-10.3262
っこ	-10.3263
痛い	-10.327
の消息	-10.3273
白く	-10.3278
▁美禰子は	-10.3279
送った	-10.3283
道也先生	-10.3293
別れ	-10.3301
奥へ	-10.3316
六十	-10.3318
書斎へ	-10.333
聞いて見ると	-10.3332
陽気	-10.334
を離れた	-10.3341
瞬	-10.3348
僕には	-10.3354
こっちへ	-10.3355
ませんか	-10.336
必要な	-10.3363
行け	-10.338
美人	-10.3394
随	-10.3398
年寄	-10.3398
好いでしょう	-10.3402
宝	-10.3402
警	-10.3405
冠	-10.3405
盃	-10.3405
聖	-10.3405
カンテラ	-10.3405
瓜	-10.3405
絡	-10.3405
課	-10.3405
鈴木君	-10.3406
幽霊	-10.3406
ような気がする	-10.3406
評価	-10.3408
はとても	-10.3408
今から	-10.3409
個性	-10.3409
評判	-10.341
不幸にして	-10.3411
この頃	-10.3412
結論	-10.3413
平気な	-10.3413
飯場	-10.3415
漸く	-10.3421
行けば	-10.3423
ありゃしない	-10.3423
返事をする	-10.3424
云わずに	-10.3426
苦しみ	-10.3432
やりたい	-10.3435
今では	-10.3435
高等	-10.3439
代表	-10.3445
▁それだから	-10.3452
所まで	-10.3454
濡れ	-10.3467
するところ	-10.3474
御茶	-10.3475
如何	-10.3478
見たり	-10.3483
きめて	-10.3492
その辺	-10.3499
この際	-10.3503
盛り	-10.3509
働いて	-10.3514
二人で	-10.3517
蔭	-10.3518
所だ	-10.3523
燃え	-10.3524
が出来た	-10.3531
肝	-10.3538
ント	-10.3546
聴か	-10.3553
ぱっと	-10.3559
などに	-10.356
どっちが	-10.3561
奇麗	-10.3562
小夜子	-10.3566
流行	-10.3568
誤	-10.3573
幽	-10.3575
奮	-10.3575
哀	-10.3575
姓	-10.3575
無邪気	-10.3575
邸	-10.3575
独仙君	-10.3575
ランスロット	-10.3575
p	-10.3575
竜	-10.3575
蔽	-10.3575
完全	-10.3575
情操	-10.3576
んだがね	-10.3576
in	-10.3577
四人	-10.3577
女房	-10.3579
失望	-10.358
宜道	-10.358
薄暗い	-10.3585
三階	-10.3587
しまいました	-10.359
出て来	-10.3592
知らん	-10.3593
のが厭	-10.3594
▁三沢は	-10.3595
遣る	-10.3595
案外	-10.3598
大勢	-10.3607
ああ云う	-10.3608
必要はない	-10.3617
動いている	-10.3619
厚い	-10.362
その時分	-10.3621
認めた	-10.3623
わけ	-10.3624
事です	-10.3634
逃	-10.3636
▁しかしそれは	-10.3646
放って	-10.365
解った	-10.3652
とくに	-10.3659
くらいなら	-10.3665
たがる	-10.3665
起きた	-10.3668
なくて	-10.3671
を読んだ	-10.3673
四角	-10.3678
を知る	-10.368
というのが	-10.3681
ものじゃない	-10.3681
藤	-10.3698
付ける	-10.371
安心した	-10.3717
何年	-10.3737
ほうが	-10.3737
と答える	-10.3738
控	-10.3742
謝	-10.3744
混	-10.3746
尚	-10.3746
暴	-10.3746
籍	-10.3747
箪	-10.3747
朗	-10.3747
炎	-10.3747
紐	-10.3747
必竟	-10.3747
迹	-10.3747
茂	-10.3747
に比べると	-10.3747
俯	-10.3747
扉	-10.3747
拘泥	-10.3748
秘密	-10.3748
有名な	-10.3749
貰いたい	-10.3751
したまま	-10.3751
でなくって	-10.3752
裸体	-10.3753
膝を	-10.3754
近い	-10.3755
返事をした	-10.3757
人間として	-10.3764
貴夫	-10.3765
足らぬ	-10.3765
悪かった	-10.3767
に関して	-10.3767
考えて見ると	-10.377
吐き	-10.3771
ラン	-10.3774
姿が	-10.3776
にせよ	-10.3777
訳に行か	-10.3779
驚く	-10.378
勝手な	-10.3783
ちっと	-10.3787
の前を	-10.3807
小さく	-10.3808
頭脳	-10.3812
とか何とか	-10.3812
を用い	-10.3816
しつつある	-10.3824
御互に	-10.3831
持つて	-10.3838
べし	-10.3849
に至って	-10.3853
されない	-10.3863
付き	-10.3873
埋	-10.3875
らよかろう	-10.3875
わず	-10.3876
使った	-10.3876
要領を得	-10.3881
そんな事は	-10.3898
ところだ	-10.3902
控えて	-10.3908
科学	-10.3916
憎	-10.3917
くらいだから	-10.3918
則	-10.3921
就	-10.3921
惑	-10.3922
悩	-10.3922
範	-10.3922
鶏	-10.3923
脈	-10.3923
簡単な	-10.3923
奢	-10.3923
艶	-10.3923
藁	-10.3923
閃	-10.3923
仏蘭西	-10.3923
周旋	-10.3923
吉川夫人	-10.3929
の裡に	-10.3931
騒ぎ	-10.3931
定めて	-10.3937
行きたい	-10.3941
と思いながら	-10.3943
迎	-10.3943
吐く	-10.3952
立ち上った	-10.3952
しておく	-10.3965
ようなもので	-10.3969
立ちながら	-10.397
芸術家	-10.397
方向	-10.3973
間柄	-10.3974
受取った	-10.3976
微かな	-10.3977
当て	-10.3978
もんか	-10.3981
彼の心	-10.3985
驚いて	-10.399
月々	-10.3996
と云います	-10.3998
待っていた	-10.4001
薄く	-10.4012
四角な	-10.4014
ポ	-10.4041
知れない	-10.4054
尋ね	-10.4055
その男	-10.4057
立ち上	-10.4059
此間	-10.4061
くらいだ	-10.4069
できなかった	-10.4073
御互	-10.4082
ある日	-10.4085
即	-10.4096
敬	-10.4098
津	-10.41
衝	-10.41
焚	-10.4101
孝	-10.4101
詞	-10.4101
醒	-10.4101
顎	-10.4101
そろそろ	-10.4101
些	-10.4101
漂	-10.4101
臥	-10.4101
ちらちら	-10.4101
懇	-10.4101
好い加減に	-10.4102
修業	-10.4102
招待	-10.4103
なりません	-10.4104
まれた	-10.4108
をやめて	-10.411
における	-10.411
と甲野さんは	-10.4112
白き	-10.4117
自分の前に	-10.4117
を取る	-10.4117
おやじ	-10.4119
途切れ	-10.4122
団子	-10.4125
事ができない	-10.4127
度胸	-10.4127
だけど	-10.4129
分らん	-10.4141
避	-10.4147
外れ	-10.4147
現実	-10.415
今更	-10.4156
呼	-10.416
勢力	-10.4174
抛げ	-10.4191
健三には	-10.4192
途中	-10.4202
の一部分	-10.4205
ようと思って	-10.4214
へ這入った	-10.4228
感心した	-10.4238
づか	-10.4248
弁じ	-10.4248
双	-10.4251
の方を見た	-10.4264
潮	-10.4282
盤	-10.4283
挿	-10.4283
碁	-10.4283
叮嚀に	-10.4283
幹	-10.4283
雀	-10.4283
満洲	-10.4283
鞄	-10.4283
羊	-10.4283
講釈	-10.4283
鎌倉	-10.4283
偉大な	-10.4284
電灯	-10.4285
仮定	-10.4285
戸棚	-10.4286
ちまった	-10.4287
廻った	-10.4288
二枚	-10.4297
気になる	-10.4299
ああいう	-10.4299
▁夫人は	-10.4299
はじめて	-10.43
亡くな	-10.4301
気狂	-10.4304
始める	-10.4314
を認めた	-10.4314
そうとする	-10.4316
暖かい	-10.432
最後	-10.4323
分け	-10.4325
堅い	-10.4332
聴いた	-10.4334
派出	-10.4338
あの男	-10.434
飲	-10.4343
潜り	-10.4345
せられて	-10.4351
つもりです	-10.4361
方がいい	-10.4364
流れて	-10.4375
遅く	-10.4379
の二字	-10.4383
君子	-10.4383
上手	-10.4384
送り	-10.44
凝と	-10.4406
そうですね	-10.4411
へ入れて	-10.4415
除	-10.4419
しておいて	-10.4426
敷いて	-10.4427
長い間	-10.4428
なんだか	-10.4435
この場合	-10.4438
と云うのが	-10.4445
述べて	-10.4446
受合	-10.4446
いずれも	-10.4447
かというと	-10.4453
信じていた	-10.4453
巻き	-10.4455
遮	-10.4456
浮き	-10.446
健	-10.4461
慢	-10.4464
一分	-10.4464
律	-10.4466
展	-10.4467
舎	-10.4467
怖い	-10.4468
筒	-10.4468
福	-10.4468
技	-10.4468
宮	-10.4468
渋	-10.4468
こしらえ	-10.4468
湿	-10.4468
豪	-10.4468
実業家	-10.4468
揉	-10.4468
朋友	-10.4468
かも知れん	-10.4468
といえども	-10.4468
某	-10.4468
蚊帳	-10.4469
延ばして	-10.4469
洋卓	-10.4469
首肯	-10.4469
風邪	-10.447
子規	-10.4471
辛抱	-10.4471
気になった	-10.4471
将来	-10.4471
立派に	-10.4472
因縁	-10.4472
是非共	-10.4472
なくっちゃならない	-10.4475
御帰り	-10.4476
心臓	-10.4477
生意気	-10.4481
ならず	-10.4482
新らしく	-10.4482
付かない	-10.4483
生きた	-10.4484
換えて	-10.4485
鳴らし	-10.4485
写生	-10.4486
風流	-10.449
為め	-10.4496
使用	-10.4496
を持つ	-10.45
もあろう	-10.4512
言訳	-10.4513
すまして	-10.4513
荷物	-10.4515
万一	-10.4532
に向った	-10.454
ばかりではない	-10.4545
べきもの	-10.4545
なぞ	-10.4549
忘	-10.4555
ものでない	-10.4557
百年	-10.4558
我慢して	-10.4561
車屋	-10.4568
廻り	-10.4573
一筋	-10.4575
隙	-10.4582
藤尾さん	-10.4589
安心して	-10.4596
応じ	-10.46
降る	-10.4603
待た	-10.4612
あっち	-10.462
茶屋	-10.4629
評した	-10.4631
喰い	-10.4638
乗せて	-10.4648
翻	-10.4651
管	-10.4656
大連	-10.4656
はずである	-10.4657
狼	-10.4657
巡	-10.4657
畏	-10.4657
一生懸命に	-10.4657
驚ろく	-10.4657
祟	-10.4657
イブセン	-10.4657
やむを得ず	-10.4657
崎	-10.4657
來	-10.4657
思われます	-10.4657
積極的	-10.4657
向側	-10.4657
ランプ	-10.4657
欄干	-10.4658
源因	-10.4658
装飾	-10.4658
繰り返す	-10.4659
四時	-10.4659
下手	-10.4665
忘れてしまった	-10.4665
極端	-10.4667
短かい	-10.4668
無暗に	-10.4669
遮ぎ	-10.4669
歩き出した	-10.4671
発現	-10.4671
発明	-10.4674
収め	-10.4674
帰ろう	-10.4675
帳面	-10.4676
声を出して	-10.4682
大きな声で	-10.4693
門前	-10.4713
忘れていた	-10.4714
宜い	-10.4721
ばかりでなく	-10.4721
正直な	-10.4732
御話し	-10.4736
悪い事	-10.474
示す	-10.4759
心配する	-10.4775
一足	-10.4778
複雑な	-10.4781
降って	-10.4787
津田君	-10.4787
惜	-10.4798
何事も	-10.48
主張する	-10.4801
疑ぐ	-10.4804
だそうである	-10.4819
妙だ	-10.4825
でもあり	-10.4826
詫ま	-10.4827
郷	-10.4843
やらない	-10.4843
飲ま	-10.4844
政	-10.4849
癪	-10.4849
雇	-10.4849
預	-10.4849
鍋	-10.4849
窺	-10.4849
刑	-10.4849
廂	-10.4849
環	-10.4849
拙	-10.4849
伊	-10.4849
喜いちゃん	-10.4849
潔	-10.4849
骨が折れ	-10.4849
戒	-10.4849
縦	-10.4849
催	-10.4849
賀	-10.485
拵らえ	-10.485
印象	-10.485
鉄砲	-10.4851
捨てて	-10.4851
吹聴	-10.4852
自然派	-10.4853
対照	-10.4853
軽薄	-10.4854
体裁	-10.4855
聞かせ	-10.4857
計画	-10.4859
見識	-10.4861
統一	-10.4862
御免	-10.4864
と思いました	-10.4868
承知して	-10.4871
隠す	-10.4884
からいうと	-10.4886
並べ	-10.4886
二十年	-10.49
化物	-10.4921
あろう	-10.4922
堪	-10.4927
一段	-10.4929
会見	-10.4934
まったく	-10.4937
吸い	-10.4938
事があります	-10.4941
光り	-10.4949
驚き	-10.4964
熱い	-10.4965
次の間	-10.4969
云つて	-10.498
廻す	-10.4984
着物を着	-10.4985
を忘れる	-10.4985
だろうと思った	-10.4992
必要がある	-10.5001
出て来ない	-10.5003
今頃	-10.5004
分子	-10.5015
せられ	-10.5018
十日	-10.5019
覧	-10.5029
りゃしない	-10.5037
頓着	-10.5042
御金	-10.5043
切り上げ	-10.5044
逸	-10.5045
容赦なく	-10.5045
解剖	-10.5045
斜	-10.5045
しゅう	-10.5045
諾	-10.5045
噂	-10.5045
殻	-10.5045
竪	-10.5045
呆	-10.5045
嘲	-10.5045
浅井君	-10.5045
殊	-10.5045
蹴	-10.5046
▁しかるに	-10.5046
そこいら	-10.5046
いやしくも	-10.5046
俳句	-10.5046
藤井	-10.5047
器量	-10.5047
広告	-10.5047
始まった	-10.5048
野郎	-10.5048
屏風	-10.5049
閑静	-10.505
画工	-10.505
思案	-10.505
皮肉	-10.5051
色彩	-10.5054
故意	-10.5057
を含んで	-10.506
硝子戸	-10.5064
を得て	-10.5067
烈しく	-10.5068
書いてあった	-10.507
伴れて	-10.5072
横町	-10.5072
建物	-10.5073
並んでいる	-10.5079
を起した	-10.5081
とか云って	-10.5085
記念	-10.509
まっ	-10.5091
結果として	-10.5098
合点	-10.5103
出さない	-10.5108
誰でも	-10.5127
に限る	-10.5132
どう云う	-10.5132
方々	-10.5133
二時間	-10.5135
それなり	-10.5145
そうもない	-10.5149
こうやって	-10.5153
怒る	-10.5158
来ます	-10.5159
ですもの	-10.5179
男女	-10.5183
ようなものだ	-10.5184
這入り	-10.5201
打つ	-10.5201
帰れ	-10.5204
でもあった	-10.5218
細く	-10.5221
んですね	-10.5222
広く	-10.5228
包んで	-10.5238
態	-10.5241
瓶	-10.5244
扇	-10.5245
丹	-10.5245
備	-10.5245
御存じ	-10.5245
訓	-10.5245
ちょいと	-10.5245
凹	-10.5245
菜	-10.5245
繁	-10.5245
蓮	-10.5245
階子段	-10.5245
肱	-10.5245
麻	-10.5245
零	-10.5245
唱	-10.5245
捜	-10.5245
ゼ	-10.5245
臘	-10.5245
佇	-10.5245
いまだかつて	-10.5246
緊張	-10.5246
ひどい	-10.5246
を脱いで	-10.5246
洒落	-10.5246
お母さん	-10.5246
推察	-10.5246
緩くり	-10.5246
にきまっている	-10.5248
患者	-10.5251
糸公	-10.5251
三十分	-10.5252
を通じて	-10.5252
教場	-10.5254
組み	-10.5262
と云われた	-10.5262
たいへん	-10.5263
生存	-10.5264
微かに	-10.5265
ころ	-10.527
▁宗近君は	-10.5271
吐いた	-10.5271
夕方	-10.5273
見上げた	-10.5277
生ずる	-10.528
出来ん	-10.5296
こんなもの	-10.5301
擦り	-10.5302
廻して	-10.531
あなたがた	-10.5312
知っていた	-10.5314
に限って	-10.5318
っぱ	-10.5321
聴く	-10.5323
響く	-10.5328
詰めた	-10.5334
をとって	-10.5344
と同じような	-10.5347
思われる	-10.5348
んじゃないか	-10.5354
ろうとする	-10.5355
決心した	-10.5376
それとも	-10.5377
結構な	-10.5382
投	-10.5387
心細	-10.539
か知らん	-10.5392
振って	-10.5393
気楽な	-10.5402
改めて	-10.5405
煙り	-10.5405
御蔭	-10.541
のではなかろうか	-10.5416
悪るい	-10.5421
浮世	-10.5424
余計	-10.5437
僧	-10.5444
修	-10.5447
瓦	-10.5449
恥ずかし	-10.5449
クララ	-10.5449
腸	-10.5449
準備	-10.5449
紺	-10.5449
明暸に	-10.5449
庫	-10.5449
久しぶりに	-10.545
撰	-10.545
独乙	-10.5451
到着	-10.5451
恐縮	-10.5452
会釈	-10.5452
寧ろ	-10.5453
いつもの通り	-10.5453
シキ	-10.5454
回復	-10.5454
熊本	-10.5455
強情	-10.5457
自殺	-10.5458
腰をかけて	-10.5458
住む	-10.5461
道義	-10.5462
っけ	-10.5462
にしたところで	-10.5463
御婆さん	-10.5464
近来	-10.5477
汚ない	-10.5481
構わず	-10.5483
宵子	-10.5483
何人	-10.5487
をながめ	-10.5494
野々宮	-10.5498
寝ていた	-10.55
なんでも	-10.5501
右手	-10.5509
笑っていた	-10.5516
勧	-10.5518
せざる	-10.5518
の態度は	-10.5522
の眼には	-10.5538
▁それでいて	-10.554
を作って	-10.5546
御前さん	-10.5547
見たまえ	-10.5548
だか分らない	-10.5551
大体	-10.556
坊さん	-10.5562
遣り	-10.5586
若い男	-10.5586
参ります	-10.559
訳には行か	-10.5591
彼の前に	-10.5593
離れた	-10.5597
調べ	-10.5601
その間に	-10.5606
してやろう	-10.5609
登り	-10.561
を聞か	-10.561
埋め	-10.561
文芸家	-10.5615
たくさんある	-10.5619
へ這入る	-10.5626
医	-10.5632
曲げ	-10.5639
マン	-10.5648
熊	-10.5653
壇	-10.5656
▁しかもその	-10.5657
帝	-10.5658
停留所	-10.5658
蒸	-10.5658
貼	-10.5658
麺	-10.5658
編	-10.5658
咳	-10.5658
気がつかなかった	-10.5658
煤	-10.5658
基	-10.5658
少くとも	-10.5658
露西亜	-10.5658
▁しばらくすると	-10.5659
提灯	-10.5659
衝突	-10.5659
むろん	-10.566
を通り越して	-10.566
佐野	-10.566
ありありと	-10.5661
番頭	-10.5661
洋灯	-10.5661
絶対	-10.5662
朝鮮	-10.5663
引張	-10.5663
甚だ	-10.5664
設け	-10.5665
自然主義	-10.5665
を起す	-10.5666
新橋	-10.5666
欲しい	-10.567
判然しない	-10.5674
起らなかった	-10.5674
思えなかった	-10.5675
▁梅子は	-10.5676
控えている	-10.5679
夜具	-10.5679
照らして	-10.5685
達者	-10.5685
申し上げ	-10.5686
二階へ	-10.5691
画家	-10.5695
直接	-10.57
を離れる	-10.5707
歩行	-10.5708
お時	-10.5712
儲け	-10.5723
向う側	-10.5723
じっとして	-10.5742
太い	-10.5742
ですけれども	-10.5746
出しました	-10.5746
阿爺	-10.5752
極め	-10.5754
鳴く	-10.5756
慰め	-10.5759
つけられた	-10.576
やって来た	-10.5769
ぢやないか	-10.5787
免	-10.5788
動作	-10.5791
払った	-10.5794
床の間	-10.5795
替	-10.5807
要するに	-10.5813
書け	-10.5827
漸	-10.5851
明るく	-10.5856
忙	-10.5856
その女	-10.5856
ものと見えて	-10.5856
扱	-10.5858
土間	-10.5865
戯	-10.5867
卓	-10.5867
章	-10.5868
江	-10.5869
ますまい	-10.5869
遇	-10.587
唄	-10.5871
に乏しい	-10.5871
寛	-10.5871
詳しい	-10.5871
かもしれない	-10.5871
悪戯	-10.5873
載せた	-10.5873
忙しい	-10.5875
を起して	-10.5876
気になって	-10.5877
ゐなかつた	-10.5877
翻訳	-10.5878
感服	-10.5878
確かめ	-10.5879
優しい	-10.5883
時期	-10.5885
どうにか	-10.5887
提	-10.5889
を有している	-10.5892
漠然	-10.5894
泣く	-10.5897
わがまま	-10.59
そうなものだ	-10.5901
の態度が	-10.5906
飛んだ	-10.591
っちまった	-10.5913
せめて	-10.5919
つかぬ	-10.5921
聞きました	-10.5921
生命	-10.5923
をかいて	-10.5927
塗り	-10.5927
送る	-10.5928
切れない	-10.5931
好んで	-10.5936
茶の間へ	-10.5937
おらぬ	-10.5942
自分で自分の	-10.5946
喜んで	-10.5961
許さ	-10.5973
結びつけ	-10.5997
んだそうだ	-10.6011
三尺	-10.6014
眼前に	-10.6041
役所	-10.6061
云いました	-10.6064
杯	-10.6071
には違	-10.6078
族	-10.6082
悔	-10.6083
ペ	-10.6084
慮	-10.6086
各	-10.6087
吠	-10.6088
藍	-10.6088
筈	-10.6088
ビ	-10.6088
肺	-10.6088
贈	-10.6088
二十世紀	-10.6088
脊	-10.6088
ぢやありませんか	-10.6088
ひそかに	-10.6088
匂	-10.6088
斬	-10.6088
翁	-10.6088
挨拶をする	-10.6088
なけりゃ	-10.6088
眩	-10.6088
皺	-10.6088
蠅	-10.6088
仁	-10.6088
嫉	-10.6088
託	-10.6088
捉	-10.6088
絞	-10.6088
▁例えば	-10.6088
中途で	-10.6088
江戸	-10.609
二十四	-10.609
比較して	-10.6091
馴れ	-10.6091
謎の女	-10.6092
連続	-10.6092
脱ぎ	-10.6094
伯父	-10.6095
主人公	-10.6098
くせに	-10.6099
表へ出た	-10.61
親爺	-10.6108
方針	-10.6109
▁藤尾は	-10.6112
の存在を	-10.6116
普	-10.6306
寧	-10.6307
頓	-10.6307
博	-10.6309
欄	-10.631
ヒ	-10.631
築	-10.631
麦	-10.631
肴	-10.631
獣	-10.631
拳	-10.631
朱	-10.631
呪	-10.631
巨	-10.631
畠	-10.631
賃	-10.631
綱	-10.631
紛	-10.6406
再	-10.6535
粗	-10.6536
那	-10.6536
智	-10.6537
徴	-10.6537
嬢	-10.6537
併	-10.6537
鞭	-10.6537
栗	-10.6537
漬	-10.6537
祈	-10.6537
踊	-10.6537
慥	-10.6537
陣	-10.6537
蓄	-10.6538
醜	-10.6538
霧	-10.6538
冥	-10.6538
刃	-10.6538
垂	-10.669
勇	-10.6706
斯	-10.6755
芝	-10.6768
履	-10.6768
肯	-10.6769
唯	-10.6769
辱	-10.677
項	-10.677
悠	-10.677
域	-10.677
庵	-10.677
療	-10.677
粛	-10.677
綴	-10.677
呈	-10.677
濡	-10.6863
臆	-10.7006
頑	-10.7008
賢	-10.7008
剛	-10.7008
紗	-10.7008
樣	-10.7008
惹	-10.7008
瞳	-10.7008
槽	-10.7008
垢	-10.7008
没	-10.7008
詫	-10.7036
陥	-10.7192
将	-10.7239
憐	-10.7247
馴	-10.7248
財	-10.7251
傚	-10.7252
競	-10.7252
臣	-10.7252
坪	-10.7252
繕	-10.7252
靡	-10.7252
瀬	-10.7252
傑	-10.7252
瞼	-10.7252
株	-10.7252
桐	-10.7252
糺	-10.7252
粋	-10.7252
徊	-10.7252
禿	-10.7375
統	-10.7485
裡	-10.7491
葬	-10.7501
周	-10.7501
秘	-10.7502
蘇	-10.7502
跡	-10.7502
唸	-10.7502
慶	-10.7502
刷	-10.7502
w	-10.7502
滞	-10.7502
踵	-10.7502
抔	-10.7502
鬼	-10.7502
苔	-10.7502
賊	-10.7502
笹	-10.7502
創	-10.7533
乞	-10.7756
験	-10.7757
ホ	-10.7758
脛	-10.7758
請	-10.7758
架	-10.7758
衰	-10.7758
櫛	-10.7758
粧	-10.7758
軸	-10.7758
帆	-10.7758
犯	-10.7758
膏	-10.7758
ヘ	-10.7758
顋	-10.7758
県	-10.7758
槌	-10.7758
霞	-10.7758
堤	-10.7758
阿	-10.7891
婦	-10.7916
操	-10.8019
―	-10.8021
笠	-10.8021
摩	-10.8021
誂	-10.8022
俵	-10.8022
導	-10.8022
監	-10.8022
稀	-10.8022
餌	-10.8022
慎	-10.8022
塩	-10.8022
陸	-10.8022
恭	-10.8022
液	-10.8022
謹	-10.8022
凡	-10.8264
盲	-10.8267
癇	-10.8292
凌	-10.8292
幻	-10.8292
學	-10.8292
髷	-10.8292
享	-10.8292
党	-10.8292
鋏	-10.8292
補	-10.8292
酌	-10.8292
擲	-10.8292
街	-10.8292
憤	-10.8292
訴	-10.8477
麗	-10.8569
飄	-10.857
騙	-10.857
迂	-10.857
咎	-10.857
弓	-10.857
勿	-10.857
箇	-10.857
蛮	-10.857
蝉	-10.857
釜	-10.857
旋	-10.857
抽	-10.8656
茫	-10.8689
撲	-10.8853
窟	-10.8853
蒲	-10.8855
忠	-10.8855
叙	-10.8855
侮	-10.8855
騎	-10.8855
萌	-10.8855
欝	-10.8855
泡	-10.8855
停	-10.8855
祭	-10.8855
缶	-10.8855
啓	-10.8855
沿	-10.8855
偸	-10.8855
埒	-10.8855
禁	-10.8855
募	-10.8855
漠	-10.9117
設	-10.9139
揮	-10.9148
敗	-10.9148
雁	-10.9149
軌	-10.9149
ギ	-10.9149
竦	-10.9149
煎	-10.9149
托	-10.9149
狐	-10.9149
僻	-10.9149
誓	-10.9149
尖	-10.9149
粟	-10.9149
獄	-10.9149
硯	-10.9149
氣	-10.9149
b	-10.915
闘	-10.915
讀	-10.915
已	-10.9354
規	-10.9448
資	-10.9449
測	-10.9451
羨	-10.9451
縛	-10.9452
査	-10.9452
拠	-10.9452
圏	-10.9452
疋	-10.9453
捩	-10.9453
蔓	-10.9453
磯	-10.9453
侍	-10.9453
貝	-10.9453
拘	-10.9764
悶	-10.9764
掃	-10.9765
陳	-10.9765
篤	-10.9765
糞	-10.9765
暁	-10.9765
椀	-10.9765
飼	-10.9765
采	-10.9765
雷	-10.9765
貪	-10.9765
斗	-10.9765
爛	-10.9765
葛	-10.9765
疳	-10.9765
網	-10.9765
箒	-10.9765
災	-10.9765
翌	-11.0074
拍	-11.0082
係	-11.0087
亦	-11.0087
櫓	-11.0087
鰹	-11.0088
斃	-11.0088
披	-11.0088
励	-11.0088
糊	-11.0088
罰	-11.0088
償	-11.0088
慨	-11.0088
棟	-11.0088
穂	-11.0088
撮	-11.0088
焔	-11.0088
B	-11.0088
′	-11.0088
絣	-11.0088
椿	-11.0088
捻	-11.0088
飽	-11.0328
釈	-11.0414
酷	-11.0419
俳	-11.0419
諦	-11.0419
漲	-11.0421
歓	-11.0421
帖	-11.0421
亜	-11.0421
斑	-11.0421
釘	-11.0421
竿	-11.0421
栽	-11.0421
駒	-11.0421
幼	-11.0421
袷	-11.0421
乎	-11.0421
翼	-11.0421
貯	-11.0421
還	-11.0421
漆	-11.0421
粒	-11.0421
燻	-11.0421
携	-11.0421
伯	-11.0754
房	-11.0757
渉	-11.0764
値	-11.0765
攻	-11.0765
蚊	-11.0765
征	-11.0766
惨	-11.0766
凸	-11.0766
恵	-11.0766
妄	-11.0766
脂	-11.0766
杓	-11.0766
桃	-11.0766
燐	-11.0766
卵	-11.0766
叡	-11.0766
噴	-11.0766
溯	-11.0766
睫	-11.0766
棺	-11.0766
蛸	-11.0766
季	-11.0766
僅	-11.0766
融	-11.1118
酸	-11.1123
皇	-11.1123
躯	-11.1123
辿	-11.1123
介	-11.1123
爵	-11.1123
吃	-11.1123
鉱	-11.1123
痩	-11.1123
髄	-11.1123
丘	-11.1123
拒	-11.1123
但	-11.1123
耽	-11.1123
蘭	-11.1123
甥	-11.1123
潤	-11.1123
到	-11.1489
邪	-11.149
稿	-11.1492
完	-11.1492
銘	-11.1493
兎	-11.1493
幌	-11.1493
慈	-11.1493
税	-11.1493
鶉	-11.1493
蟻	-11.1493
史	-11.1493
,	-11.1493
仄	-11.1493
施	-11.1493
痒	-11.1493
鯉	-11.1493
企	-11.1493
秒	-11.1493
萩	-11.1493
蕩	-11.1493
籃	-11.1493
鴨	-11.1493
舐	-11.1493
顫	-11.1581
昨	-11.1858
求	-11.1875
鹿	-11.1876
鑑	-11.1876
婚	-11.1876
旦	-11.1877
診	-11.1878
枠	-11.1878
究	-11.1878
叉	-11.1878
桟	-11.1878
槍	-11.1878
藩	-11.1878
僚	-11.1878
葢	-11.1878
懲	-11.1878
採	-11.1878
炬	-11.1878
捏	-11.1878
脇	-11.1878
啜	-11.1878
亀	-11.1878
茸	-11.1878
銃	-11.1878
駈	-11.1878
鳶	-11.1878
薪	-11.1878
艇	-11.1878
径	-11.2265
偶	-11.2276
按	-11.2278
渇	-11.2278
茎	-11.2278
貨	-11.2278
契	-11.2278
牙	-11.2278
協	-11.2278
嚇	-11.2278
蜜	-11.2278
巌	-11.2278
昇	-11.2278
靄	-11.2278
匙	-11.2278
截	-11.2278
臍	-11.2278
喩	-11.2278
牌	-11.2278
曾	-11.2278
腋	-11.2278
妓	-11.2278
愈	-11.2278
逐	-11.2278
浄	-11.2278
董	-11.2278
囃	-11.2278
鱗	-11.2278
率	-11.2278
祐	-11.2278
ゞ	-11.2667
ぢ	-11.268
秀	-11.2681
乃	-11.2693
且	-11.2694
辻	-11.2694
宙	-11.2694
繊	-11.2694
偏	-11.2694
濠	-11.2694
倦	-11.2694
狩	-11.2694
炉	-11.2695
悄	-11.2695
港	-11.2695
肘	-11.2695
囚	-11.2695
掩	-11.2695
燕	-11.2695
繞	-11.2695
蔦	-11.2695
貢	-11.2695
喝	-11.2695
饒	-11.2695
畜	-11.2695
巣	-11.2695
馳	-11.3025
嵐	-11.3124
索	-11.3127
鞍	-11.3129
聯	-11.3129
泉	-11.3129
戴	-11.3129
貞	-11.3129
蒔	-11.3129
牡	-11.3129
攪	-11.3129
魯	-11.3129
挫	-11.3129
鳩	-11.3129
俺	-11.3129
毬	-11.3129
竟	-11.3129
k	-11.3129
梢	-11.3129
櫃	-11.3129
閣	-11.3129
摘	-11.3129
朽	-11.3129
狗	-11.3129
樽	-11.3129
遜	-11.3129
劃	-11.3129
屁	-11.3129
鑿	-11.3129
隈	-11.3129
錦	-11.3129
牽	-11.3129
燃	-11.3263
賑	-11.351
聳	-11.3582
賛	-11.3582
沓	-11.3584
檜	-11.3584
2	-11.3584
症	-11.3584
ユ	-11.3584
録	-11.3584
鴉	-11.3584
嵌	-11.3584
壕	-11.3584
檀	-11.3584
鉾	-11.3584
婿	-11.3584
.	-11.3584
媒	-11.3584
惰	-11.3584
均	-11.3584
顛	-11.3584
把	-11.3584
羹	-11.3584
賜	-11.3584
隆	-11.3584
臓	-11.4038
授	-11.4058
況	-11.4058
府	-11.406
乳	-11.406
蛙	-11.406
峰	-11.406
績	-11.406
狡	-11.406
T	-11.406
庇	-11.406
耐	-11.406
巴	-11.406
掟	-11.406
柵	-11.406
絨	-11.406
廿	-11.406
猪	-11.406
愁	-11.406
錠	-11.406
厘	-11.406
蟠	-11.406
頻	-11.406
飴	-11.406
磁	-11.406
匠	-11.406
耶	-11.406
蝶	-11.406
韻	-11.406
謙	-11.406
寡	-11.406
系	-11.406
鉛	-11.4121
哲	-11.4556
迫	-11.4559
須	-11.456
宇	-11.456
署	-11.456
伽	-11.456
炊	-11.456
俸	-11.456
叮	-11.456
虞	-11.456
騰	-11.456
沸	-11.456
顕	-11.456
鶴	-11.456
憫	-11.456
赦	-11.456
鯛	-11.456
券	-11.456
贋	-11.456
倅	-11.456
寫	-11.456
鬢	-11.456
竈	-11.456
ゲ	-11.456
洞	-11.456
粥	-11.456
鶯	-11.456
賦	-11.456
梨	-11.456
撫	-11.5029
棄	-11.5061
悉	-11.5067
呂	-11.5084
腑	-11.5085
詮	-11.5086
邦	-11.5086
宴	-11.5086
嘯	-11.5086
燦	-11.5086
袍	-11.5086
陋	-11.5086
赴	-11.5086
會	-11.5086
蹄	-11.5086
絆	-11.5086
剤	-11.5086
唾	-11.5086
甕	-11.5086
擂	-11.5086
悦	-11.5086
肋	-11.5086
俎	-11.5086
嘴	-11.5086
詐	-11.5086
昏	-11.5086
曹	-11.5086
聟	-11.5086
倹	-11.5086
斧	-11.5087
儲	-11.5467
甚	-11.5624
廓	-11.5641
衛	-11.5642
昂	-11.5642
鎌	-11.5642
嚢	-11.5642
鋳	-11.5642
胎	-11.5642
抹	-11.5642
吝	-11.5642
腫	-11.5642
尼	-11.5642
峙	-11.5642
岐	-11.5642
鰻	-11.5642
ヨ	-11.5642
淵	-11.5642
芽	-11.5642
汝	-11.5642
累	-11.5642
賓	-11.5642
歇	-11.5642
覆	-11.5642
漁	-11.5642
典	-11.5642
禄	-11.5642
痴	-11.5642
牧	-11.5642
絃	-11.5642
爺	-11.6166
誉	-11.6224
符	-11.6227
玄	-11.6229
膜	-11.623
翫	-11.623
楼	-11.623
浚	-11.623
襞	-11.623
湛	-11.623
鋒	-11.623
扶	-11.623
箆	-11.623
獅	-11.623
醸	-11.623
鞘	-11.623
毀	-11.623
鵞	-11.623
諷	-11.623
謀	-11.623
侵	-11.623
誦	-11.623
腥	-11.623
爆	-11.623
賤	-11.623
喘	-11.623
ザ	-11.623
焙	-11.623
咏	-11.623
渓	-11.623
珊	-11.623
羞	-11.623
徐	-11.623
拗	-11.623
嘔	-11.623
援	-11.623
駅	-11.623
賽	-11.623
俄	-11.6231
必	-11.6847
亭	-11.6853
呵	-11.6854
濫	-11.6855
材	-11.6855
鷹	-11.6855
迅	-11.6855
燭	-11.6855
屠	-11.6855
溢	-11.6855
ヵ	-11.6855
仔	-11.6855
睦	-11.6855
箔	-11.6855
簇	-11.6855
鍔	-11.6855
櫂	-11.6855
猟	-11.6855
碧	-11.6855
佳	-11.6855
爽	-11.6855
藻	-11.6855
襷	-11.6855
栓	-11.6855
湾	-11.6855
溺	-11.6855
嵩	-11.6855
錬	-11.6855
億	-11.6855
ヌ	-11.6855
忽	-11.7118
跳	-11.7508
譜	-11.7521
奔	-11.7521
糖	-11.7521
塾	-11.7522
趨	-11.7522
掬	-11.7522
嘉	-11.7522
搏	-11.7522
1	-11.7522
譚	-11.7522
函	-11.7522
緋	-11.7522
侶	-11.7522
點	-11.7522
唆	-11.7522
浦	-11.7522
莨	-11.7522
蜂	-11.7522
尿	-11.7522
庸	-11.7522
雛	-11.7522
闊	-11.7522
唖	-11.7522
蟹	-11.7522
捌	-11.7522
冶	-11.7522
鎧	-11.7522
榴	-11.7522
濛	-11.7522
挺	-11.7522
筍	-11.7522
鍵	-11.7522
楷	-11.7522
耀	-11.7522
區	-11.7522
聊	-11.7522
圃	-11.7522
斎	-11.8233
稲	-11.8234
餐	-11.8234
擬	-11.8236
尉	-11.8236
諧	-11.8236
撚	-11.8236
稚	-11.8236
赭	-11.8236
瘤	-11.8236
研	-11.8236
x	-11.8236
湖	-11.8236
踴	-11.8236
姑	-11.8236
籐	-11.8236
漾	-11.8236
薫	-11.8236
媚	-11.8236
弧	-11.8236
枡	-11.8236
夷	-11.8236
峠	-11.8236
既	-11.8845
裕	-11.9002
緊	-11.9004
貌	-11.9005
妖	-11.9005
註	-11.9005
瘡	-11.9005
漏	-11.9005
農	-11.9005
噺	-11.9005
豁	-11.9005
絽	-11.9005
升	-11.9005
蠢	-11.9005
賭	-11.9005
輿	-11.9005
璃	-11.9005
駿	-11.9005
麓	-11.9005
兜	-11.9005
跋	-11.9005
萎	-11.9005
穢	-11.9005
篏	-11.9005
葵	-11.9005
鎮	-11.9005
艘	-11.9005
袢	-11.9005
畑	-11.9005
綯	-11.9005
遑	-11.9005
劈	-11.9005
挽	-11.9005
獲	-11.9005
鮭	-11.9005
桂	-11.9005
沖	-11.9005
碑	-11.9005
矯	-11.9005
樫	-11.9006
殖	-11.9353
患	-11.9814
齢	-11.9834
也	-11.9835
恰	-11.9836
螺	-11.9837
瀾	-11.9837
梁	-11.9838
菫	-11.9838
縹	-11.9838
芳	-11.9838
恃	-11.9839
滝	-11.9839
綾	-11.9839
孫	-11.9839
鉦	-11.9839
爾	-11.9839
錐	-11.9839
屍	-11.9839
縺	-11.9839
彦	-11.9839
蚤	-11.9839
盟	-11.9839
魄	-11.9839
捷	-11.9839
窖	-11.9839
鴻	-11.9839
愕	-11.9839
熾	-11.9839
舷	-11.9839
慄	-11.9839
轟	-11.9839
拓	-11.9839
瑣	-11.9839
謬	-11.9839
副	-11.9839
暦	-11.9839
輸	-11.9839
童	-11.9839
尋	-12.0727
屏	-12.0733
討	-12.0747
變	-12.0747
撒	-12.0748
廉	-12.0748
婢	-12.0748
驕	-12.0748
喪	-12.0748
喞	-12.0748
蕭	-12.0748
赫	-12.0748
漣	-12.0748
噸	-12.0748
坤	-12.0748
厠	-12.0748
桁	-12.0748
冀	-12.0748
躁	-12.0748
滋	-12.0748
丙	-12.0748
陀	-12.0748
靨	-12.0748
遼	-12.0748
款	-12.0748
祥	-12.0748
紬	-12.0748
舳	-12.0748
遙	-12.0748
怨	-12.0748
軋	-12.0748
梭	-12.0748
O	-12.0748
憑	-12.0748
稍	-12.0748
跛	-12.0748
艦	-12.0748
駁	-12.0748
苗	-12.0748
寓	-12.0748
堆	-12.0748
而	-12.0748
呻	-12.0748
肖	-12.0749
呉	-12.1162
褒	-12.1243
拵	-12.1564
洒	-12.1745
莫	-12.1747
翠	-12.1747
餘	-12.1748
咄	-12.1748
鷲	-12.1748
涎	-12.1748
姫	-12.1748
恣	-12.1748
剪	-12.1748
擒	-12.1748
芥	-12.1748
軟	-12.1748
粘	-12.1748
脅	-12.1748
蚕	-12.1748
鬱	-12.1748
轢	-12.1748
侯	-12.1748
吊	-12.1748
吏	-12.1748
簿	-12.1748
錆	-12.1748
隻	-12.1748
忰	-12.1748
罫	-12.1748
臼	-12.1748
鷺	-12.1748
岨	-12.1748
誅	-12.1748
M	-12.1748
]	-12.1748
辣	-12.1748
庁	-12.1748
嬲	-12.1748
濤	-12.1748
蜀	-12.1748
鋼	-12.1748
腮	-12.1748
杳	-12.1748
舶	-12.1748
梗	-12.1748
鱈	-12.1748
朴	-12.1748
〆	-12.1748
慣	-12.2048
毫	-12.2756
菓	-12.2843
-	-12.2857
準	-12.2858
哉	-12.2858
恕	-12.2858
茨	-12.2858
倣	-12.2859
杜	-12.2859
賄	-12.2859
鄙	-12.2859
罎	-12.2859
債	-12.2859
糠	-12.2859
辰	-12.2859
惣	-12.2859
S	-12.2859
蘆	-12.2859
騾	-12.2859
鬣	-12.2859
曠	-12.2859
葱	-12.2859
娶	-12.2859
綺	-12.2859
郡	-12.2859
訝	-12.2859
C	-12.2859
噫	-12.2859
仆	-12.2859
ゾ	-12.2859
韓	-12.2859
拈	-12.2859
撓	-12.2859
棹	-12.2859
縋	-12.2859
攀	-12.2859
蠣	-12.2859
'	-12.2859
昌	-12.2859
欅	-12.2859
瞞	-12.2859
體	-12.2859
魅	-12.2859
埓	-12.2859
恒	-12.2859
嶮	-12.2859
鋲	-12.2859
棕	-12.2859
眞	-12.2859
笊	-12.2859
蜿	-12.2859
妊	-12.2859
虜	-12.2859
叢	-12.2859
疚	-12.2859
鯨	-12.2859
蟇	-12.4086
盥	-12.4104
李	-12.4104
勉	-12.4108
複	-12.4108
驀	-12.4108
楊	-12.4108
炳	-12.4108
喙	-12.4108
薯	-12.4109
α	-12.4109
瘋	-12.4109
遷	-12.4109
雌	-12.4109
澹	-12.4109
蕪	-12.4109
=	-12.4109
妃	-12.4109
緯	-12.4109
鵜	-12.4109
薩	-12.4109
峡	-12.4109
濶	-12.4109
實	-12.4109
凋	-12.4109
凶	-12.4109
楓	-12.4109
芹	-12.4109
梃	-12.4109
鮎	-12.4109
譯	-12.4109
蹂	-12.4109
捗	-12.4109
仇	-12.4109
舗	-12.4109
檻	-12.4109
澱	-12.4109
D	-12.4109
擁	-12.4109
柏	-12.4109
I	-12.4109
菩	-12.4109
癌	-12.4109
臀	-12.4109
濘	-12.4109
耄	-12.4109
〇	-12.4109
痞	-12.4109
杭	-12.4109
祷	-12.4109
G	-12.4109
姪	-12.4109
歪	-12.4109
囀	-12.4109
對	-12.4109
楯	-12.4109
捺	-12.4109
爲	-12.4109
嚏	-12.4109
虹	-12.4109
遶	-12.4109
冴	-12.5069
詳	-12.5529
讐	-12.5537
撞	-12.5537
糧	-12.5537
厨	-12.5537
欧	-12.5537
凍	-12.5537
〕	-12.5537
堺	-12.5537
摯	-12.5537
躙	-12.5537
堰	-12.5537
樺	-12.5537
菱	-12.5537
嗤	-12.5537
〔	-12.5537
婉	-12.5537
蓑	-12.5537
蕊	-12.5537
鋸	-12.5537
峻	-12.5537
綸	-12.5537
寥	-12.5537
彎	-12.5537
桑	-12.5537
嘶	-12.5537
慚	-12.5537
螫	-12.5537
E	-12.5537
哩	-12.5537
砥	-12.5537
箕	-12.5537
鍬	-12.5537
*	-12.5537
剰	-12.5537
拉	-12.5537
幟	-12.5537
轡	-12.5537
侠	-12.5538
傳	-12.5538
愧	-12.5538
樂	-12.5538
蕾	-12.5538
岳	-12.5538
楚	-12.5538
滲	-12.5538
ヲ	-12.5538
撼	-12.5538
憲	-12.5538
貶	-12.5538
瞑	-12.5538
渝	-12.5538
迚	-12.5538
航	-12.5538
刳	-12.5538
處	-12.5538
發	-12.5538
遐	-12.5538
焉	-12.5538
鮪	-12.5538
洪	-12.5539
飢	-12.5539
套	-12.72
嬌	-12.7202
溌	-12.7202
喋	-12.7203
朋	-12.7203
豈	-12.7204
芒	-12.7204
勃	-12.7204
裹	-12.7204
宰	-12.7204
桓	-12.7204
覊	-12.7204
濟	-12.7204
裄	-12.7204
鮨	-12.7204
牀	-12.7204
邁	-12.7204
濺	-12.7204
樋	-12.7204
當	-12.7204
宥	-12.7204
P	-12.7204
肚	-12.7204
咽	-12.7204
篝	-12.7204
麩	-12.7204
梳	-12.7204
巫	-12.7204
諒	-12.7204
囁	-12.7204
晒	-12.7204
烙	-12.7204
吼	-12.7204
窪	-12.7204
輛	-12.7204
咀	-12.7204
慵	-12.7204
栞	-12.7204
瓣	-12.7204
畸	-12.7204
訛	-12.7204
弔	-12.7204
搾	-12.7204
涸	-12.7204
痘	-12.7204
緬	-12.7204
詛	-12.7204
魁	-12.7204
侘	-12.7204
窃	-12.7204
粕	-12.7204
憩	-12.7204
樟	-12.7204
簪	-12.7204
鉤	-12.7204
勅	-12.7204
嘸	-12.7204
萱	-12.7204
穀	-12.7204
懶	-12.7204
N	-12.7204
棲	-12.7204
傲	-12.7204
ヰ	-12.7204
X	-12.9201
繪	-12.9203
怯	-12.9203
惧	-12.9204
3	-12.9204
繙	-12.9204
舍	-12.9204
墜	-12.9204
屡	-12.9204
儼	-12.9204
鏘	-12.9204
甍	-12.9204
卯	-12.9204
筑	-12.9204
覺	-12.9204
譬	-12.9204
閻	-12.9204
渚	-12.9204
茅	-12.9204
譫	-12.9204
黴	-12.9204
戞	-12.9204
欣	-12.9204
慳	-12.9204
昵	-12.9204
膿	-12.9204
漉	-12.9204
聾	-12.9204
蓊	-12.9204
啼	-12.9204
鱧	-12.9204
鼈	-12.9204
嚊	-12.9204
斉	-12.9204
陵	-12.9204
癡	-12.9204
俊	-12.9204
摸	-12.9204
柩	-12.9204
鐙	-12.9204
煖	-12.9204
疵	-12.9204
冲	-12.9204
掏	-12.9204
讃	-12.9204
壱	-12.9204
廟	-12.9204
瑟	-12.9204
霰	-12.9204
宕	-12.9204
畝	-12.9204
餉	-12.9204
搬	-12.9204
甃	-12.9204
蛍	-12.9204
麾	-12.9204
杢	-12.9204
乍	-12.9204
狎	-12.9204
磅	-12.9204
蕗	-12.9204
覇	-12.9204
鮒	-12.9204
嚼	-12.9204
誕	-12.9204
駕	-12.9204
鰯	-12.9204
鵯	-12.9204
惡	-12.9204
摂	-12.9204
苟	-12.9204
鴎	-12.9204
灌	-12.9204
鈕	-12.9204
榎	-12.9204
顆	-12.9204
灸	-12.9204
贏	-12.9204
單	-12.9204
氛	-12.9204
惟	-12.9205
尤	-13.1627
般	-13.1686
啻	-13.17
瞭	-13.1701
誌	-13.1703
郵	-13.1703
廣	-13.1703
膚	-13.1704
悖	-13.1704
崗	-13.1704
燬	-13.1704
禍	-13.1704
賚	-13.1704
旁	-13.1704
4	-13.1704
7	-13.1704
佯	-13.1704
訥	-13.1704
姥	-13.1704
“	-13.1704
攣	-13.1704
渺	-13.1704
糾	-13.1704
框	-13.1704
柑	-13.1704
卿	-13.1704
厄	-13.1704
嵯	-13.1704
拔	-13.1704
朔	-13.1704
筵	-13.1704
縒	-13.1704
邃	-13.1704
峯	-13.1704
摶	-13.1704
艫	-13.1704
梟	-13.1704
窕	-13.1704
跏	-13.1704
燗	-13.1704
犇	-13.1704
践	-13.1704
:	-13.1704
^	-13.1704
”	-13.1704
嬾	-13.1704
條	-13.1704
祇	-13.1704
蓼	-13.1704
桔	-13.1704
Y	-13.1704
剌	-13.1704
寅	-13.1704
弘	-13.1704
斷	-13.1704
疼	-13.1704
穹	-13.1704
膈	-13.1704
蹠	-13.1704
旬	-13.1704
橙	-13.1704
淫	-13.1704
扁	-13.1704
敍	-13.1704
耻	-13.1704
厩	-13.1704
畫	-13.1704
篆	-13.1705
洲	-13.5036
冗	-13.5036
晦	-13.5037
慧	-13.5037
杏	-13.5037
梯	-14.0017
倫	-14.0034
幣	-14.0035
紳	-14.0036
康	-14.0037
蝋	-14.0037
煉	-14.0037
矛	-14.0037
倶	-14.0037
喉	-14.004
輓	-14.9479
蹣	-14.948
踰	-14.9481
跚	-14.9482
誨	-14.9483
裔	-14.9484
膠	-14.9485
腔	-14.9486
聘	-14.9487
翩	-14.9488
羲	-14.9489
簟	-14.949
篩	-14.9491
租	-14.9492
禦	-14.9493
痰	-14.9494
畔	-14.9495
甜	-14.9496
瑪	-14.9497
瑙	-14.9498
狙	-14.9499
潟	-14.95
滾	-14.9501
湍	-14.9502
涵	-14.9503
欖	-14.9504
檗	-14.9505
橄	-14.9506
柾	-14.9507
枳	-14.9508
旺	-14.9509
斡	-14.951
斛	-14.9511
拷	-14.9512
扼	-14.9513
憺	-14.9514
怺	-14.9515
忖	-14.9516
庖	-14.9517
巷	-14.9518
嗄	-14.9519
卦	-14.952
匿	-14.9521
匆	-14.9522
兢	-14.9523
兇	-14.9524
Q	-14.9525
鼬	-14.9526
鸞	-14.9527
餞	-14.9528
隲	-14.9529
阻	-14.953
闥	-14.9531
關	-14.9532
鏤	-14.9533
錫	-14.9534
銷	-14.9535
醗	-14.9536
酵	-14.9537
酪	-14.9538
賠	-14.9539
豌	-14.954
誼	-14.9541
詭	-14.9542
褞	-14.9543
蟆	-14.9544
蝸	-14.9545
蒐	-14.9546
繹	-14.9547
睛	-14.9548
眇	-14.9549
牆	-14.955
炙	-14.9551
瀝	-14.9552
漓	-14.9553
淘	-14.9554
淆	-14.9555
枉	-14.9556
擽	-14.9557
撻	-14.9558
揶	-14.9559
揄	-14.956
捐	-14.9561
拇	-14.9562
抒	-14.9563
憬	-14.9564
憧	-14.9565
并	-14.9566
巓	-14.9567
墻	-14.9568
囈	-14.9569
參	-14.957
價	-14.9571
傭	-14.9572
俐	-14.9573
麹	-14.9574
鮑	-14.9575
趙	-14.9576
詈	-14.9577
菖	-14.9578
肢	-14.9579
筮	-14.958
穽	-14.9581
睥	-14.9582
盪	-14.9583
疝	-14.9584
疇	-14.9585
澤	-14.9586
梠	-14.9587
慷	-14.9588
惘	-14.9589
怙	-14.959
徽	-14.9591
庚	-14.9592
帷	-14.9593
帙	-14.9594
屎	-14.9595
尠	-14.9596
妁	-14.9597
埠	-14.9598
嚥	-14.9599
伜	-14.96
伍	-14.9601
需	-14.9602
躑	-14.9603
躅	-14.9604
蹌	-14.9605
踉	-14.9606
購	-14.9607
褄	-14.9608
蝕	-14.9609
窈	-14.961
磬	-14.9611
猜	-14.9612
渠	-14.9613
氈	-14.9614
毘	-14.9615
殉	-14.9616
曙	-14.9617
晰	-14.9618
斤	-14.9619
擅	-14.962
拜	-14.9621
憊	-14.9622
恬	-14.9623
彰	-14.9624
彗	-14.9625
奸	-14.9626
填	-14.9627
塁	-14.9628
嗇	-14.9629
刎	-14.963
隧	-14.9631
謳	-14.9632
該	-14.9633
褐	-14.9634
蜒	-14.9635
薦	-14.9636
葭	-14.9637
腎	-14.9638
瞹	-14.9639
眛	-14.964
瑞	-14.9641
琲	-14.9642
珈	-14.9643
熨	-14.9644
循	-14.9645
崋	-14.9646
奕	-14.9647
壜	-14.9648
培	-14.9649
哈	-14.965
吶	-14.9651
克	-14.9652
兀	-14.9653
儒	-14.9654
僥	-14.9655
偲	-14.9656
倖	-14.9657
鸚	-14.9658
鵡	-14.9659
陛	-14.966
謔	-14.9661
褌	-14.9662
肆	-14.9663
聚	-14.9664
罩	-14.9665
窶	-14.9666
磐	-14.9667
痢	-14.9668
疱	-14.9669
甸	-14.967
琶	-14.9671
琵	-14.9672
浣	-14.9673
梵	-14.9674
掉	-14.9675
懊	-14.9676
徠	-14.9677
徂	-14.9678
嘗	-14.9679
卜	-14.968
凭	-14.9681
鼾	-14.9682
麿	-14.9683
隷	-14.9684
鑼	-14.9685
迦	-14.9686
豹	-14.9687
胞	-14.9688
聡	-14.9689
罷	-14.969
窒	-14.9691
礎	-14.9692
璋	-14.9693
瑠	-14.9694
瀑	-14.9695
沁	-14.9696
毯	-14.9697
徨	-14.9698
彷	-14.9699
剽	-14.97
齷	-14.9701
齪	-14.9702
邂	-14.9703
逅	-14.9704
跣	-14.9705
赧	-14.9706
諭	-14.9707
虐	-14.9708
菅	-14.9709
脆	-14.971
縷	-14.9711
緲	-14.9712
緞	-14.9713
稼	-14.9714
斟	-14.9715
擱	-14.9716
幡	-14.9717
喇	-14.9718
叭	-14.9719
亘	-14.972
駱	-14.9721
簀	-14.9722
瘍	-14.9723
抓	-14.9724
憮	-14.9725
悸	-14.9726
悧	-14.9727
怜	-14.9728
尨	-14.9729
奈	-14.973
夥	-14.9731
塹	-14.9732
喚	-14.9733
W	-14.9734
顰	-14.9735
閲	-14.9736
裳	-14.9737
蒻	-14.9738
蒟	-14.9739
脹	-14.974
翰	-14.9741
綻	-14.9742
秤	-14.9743
淑	-14.9744
刊	-14.9745
ヂ	-14.9746
鬨	-14.9747
蝦	-14.9748
繍	-14.9749
粱	-14.975
痺	-14.9751
滔	-14.9752
核	-14.9753
柢	-14.9754
柘	-14.9755
懃	-14.9756
慇	-14.9757
屓	-14.9758
倆	-14.9759
伐	-14.976
駝	-14.9761
逍	-14.9762
衒	-14.9763
淀	-14.9764
棠	-14.9765
擡	-14.9766
搗	-14.9767
恍	-14.9768
嶺	-14.9769
妥	-14.977
喊	-14.9771
伎	-14.9772
齎	-14.9773
銜	-14.9774
郊	-14.9775
蟷	-14.9776
螂	-14.9777
緻	-14.9778
籤	-14.9779
癲	-14.978
瑚	-14.9781
楠	-14.9782
柴	-14.9783
朶	-14.9784
撤	-14.9785
懺	-14.9786
弛	-14.9787
嬪	-14.9788
凱	-14.9789
釦	-14.979
遭	-14.9791
輯	-14.9792
衡	-14.9793
茲	-14.9794
燥	-14.9795
棋	-14.9796
暢	-14.9797
ゑ	-14.9798
雫	-14.9799
逝	-14.98
褪	-14.9801
琥	-14.9802
珀	-14.9803
猾	-14.9804
梶	-14.9805
掴	-14.9806
挑	-14.9807
拱	-14.9808
徘	-14.9809
孟	-14.981
詣	-14.9811
訂	-14.9812
耗	-14.9813
窘	-14.9814
晶	-14.9815
撥	-14.9816
靠	-14.9817
茄	-14.9818
榜	-14.9819
曳	-14.982
暫	-14.9821
掲	-14.9822
戚	-14.9823
奨	-14.9824
央	-14.9825
勾	-14.9826
頗	-14.9827
諺	-14.9828
蕉	-14.9829
芭	-14.983
瓢	-14.9831
摧	-14.9832
措	-14.9833
嗽	-14.9834
鍮	-14.9835
蹲	-14.9836
踞	-14.9837
衍	-14.9838
畢	-14.9839
啣	-14.984
ヽ	-14.9841
v	-14.9842
颯	-14.9843
鍛	-14.9844
迸	-14.9845
覘	-14.9846
檎	-14.9847
吻	-14.9848
跪	-14.9849
蜘	-14.985
蛛	-14.9851
笛	-14.9852
渾	-14.9853
沼	-14.9854
慕	-14.9855
做	-14.9856
髴	-14.9857
髣	-14.9858
餓	-14.9859
逡	-14.986
逞	-14.9861
椎	-14.9862
葡	-14.9863
萄	-14.9864
拡	-14.9865
佗	-14.9866
葺	-14.9867
暈	-14.9868
斥	-14.9869
贔	-14.987
燵	-14.9871
汲	-14.9872
屹	-14.9873
寞	-14.9874
饂	-14.9875
飩	-14.9876
陶	-14.9877
瞥	-14.9878
甞	-14.9879
濯	-14.988
逗	-14.9881
牢	-14.9882
娑	-14.9883
塚	-14.9884
嗜	-14.9885
喫	-14.9886
錯	-14.9887
蹟	-14.9888
朦	-14.9889
捧	-14.989
妬	-14.9891
劫	-14.9892
裟	-14.9893
袈	-14.9894
簾	-14.9895
献	-14.9896
狽	-14.9897
煽	-14.9898
跨	-14.9899
敢	-14.99
崇	-14.9901
噌	-14.9902
鹸	-14.9903
鞋	-14.9904
謂	-14.9905
綜	-14.9906
獰	-14.9907
泰	-14.9908
謨	-14.9909
秩	-14.991
溝	-14.9911
泳	-14.9912
宣	-14.9913
削	-14.9914
帛	-14.9915
繻	-14.9916
憾	-14.9917
庄	-14.9918
薔	-14.9919
薇	-14.992
ヶ	-14.9921
蝠	-14.9922
蝙	-14.9923
麭	-14.9924
督	-14.9925
娯	-14.9926
司	-14.9927
几	-14.9928
荘	-14.9929
曖	-14.993
骸	-14.9931
襯	-14.9932
縊	-14.9933
笥	-14.9934
犠	-14.9935
牲	-14.9936
饅	-14.9937
溶	-14.9938
盗	-14.9939
玩	-14.994
吟	-14.9941
辟	-14.9942
跟	-14.9943
漕	-14.9944
妨	-14.9945
奏	-14.9946
叶	-14.9947
f	-14.9948
寿	-14.9949
掠	-14.995
曝	-14.9951
斐	-14.9952
酬	-14.9953
渦	-14.9954
睨	-14.9955
攫	-14.9956
嗅	-14.9957
鄭	-14.9958
藉	-14.9959
蕎	-14.996
刹	-14.9961
嘆	-14.9962
敦	-14.9963
維	-14.9964
嚀	-14.9965
湧	-14.9966
整	-14.9967
躊	-14.9968
ォ	-14.9969
咲	-14.997
敏	-14.9971
圭	-14.9972
欽	-14.9973
堕	-14.9974
偵	-14.9975
巾	-14.9976
裂	-14.9977
罹	-14.9978
審	-14.9979
距	-14.998
於	-14.9981
殆	-14.9982
曜	-14.9983
浩	-14.9984
躍	-14.9985
暸	-14.9986
c	-14.9987
械	-14.9988
汰	-14.9989
碌	-14.999
襲	-14.9991
潰	-14.9992
紹	-14.9993
ョ	-14.9994
制	-14.9995
冒	-14.9996
叔	-14.9997
碗	-14.9997
ゅ	-14.9998
惚	-14.9999
弥	-15
疲	-15.0001
涯	-15.0002
ァ	-15.0003
促	-15.0004
ェ	-15.0005
洩	-15.0006
硝	-15.0007
抑	-15.0008
週	-15.0009
\	-15.001
/	-15.0011
稽	-15.0012
嘩	-15.0013
蔑	-15.0014
乏	-15.0015
訊	-15.0016
廊	-15.0017
希	-15.0018
抵	-15.0019
曰	-15.002
令	-15.002
歴	-15.0021
批	-15.0022
看	-15.0023
覗	-15.0024
沙	-15.0025
椅	-15.0025
淋	-15.0026
充	-15.0027
嬉	-15.0028
阪	-15.0028
努	-15.0028
汽	-15.0029
簡	-15.003
較	-15.0031
憶	-15.0032
ャ	-15.0033
漱	-15.0033
挨	-15.0034
拶	-15.0035
剖	-15.0035
眺	-15.0036
戟	-15.0037
愉	-15.0037
第	-15.0037
襦	-15.0037
梧	-15.0037
嗟	-15.0037
喧	-15.0037
贅	-15.0038
ょ	-15.0038
禰	-15.0038
經	-15.0038
